[PAD]
[UNK]
[CLS]
[SEP]
[MASK]
.
이
다
에
는
을
의
하
은
한
고
가
를
,
지
기
으
대
1
있
도
으로
했
2
사
에서
시
일
로
인
해
(
수
들
)
'
"
과
전
아
것
그
어
보
만
정
적
자
부
주
등
경
3
게
위
나
와
중
공
라
년
제
개
면
상
할
조
원
된
여
되
국
·
서
관
었
선
한다
성
오
5
연
내
4
유
20
모
소
마
며
’
‘
비
미
세
월
최
신
말
명
“
”
분
%
않
구
방
회
우
발
뉴
없
때
김
통
동
6
생
교
안
현
강
거
문
스
차
한국
예
영
장
계
지난
무
까
실
당
진
던
화
까지
7
##00
받
달
결
8
바
=
-
단
재
올
후
불
감
았
9
에게
됐
노
입
더
지만
##니다
건
박
반
특
따
저
매
출
학
추
된다
대한
투
억
남
다는
배
10
##시스
서울
평
다고
또
날
면서
확
같
뉴시스
부터
씨
금
포
설
함
간
많
위해
처
밝
열
행
운
겠
프
언
기자
두
요
점
권
19
201
역
외
작
번
라고
허
알
물
참
200
c
라는
총
새
경기
증
대표
청
파
<
활
앞
직
초
때문
지역
미국
집
보다
사업
피
민
밝혔
못
타
산
통해
사람
임
~
기업
아니
체
우리
양
될
시장
종
정부
본
치
는데
판
형
대해
호
심
습
[
검
문제
]
였
높
co
뒤
각
합
관계
@
승
0
##ne
언론
함께
천
시간
및
북
좋
경우
음
리
##통령
뉴스
협
변
대통령
12
환
백
습니다
11
팀
그러
삼
필
맞
법
야
규
이상
##is
S
업
살
돼
드
교육
위원
가능
지원
중국
이번
데
이라
com
군
광
##통신
##권자
일본
약
목
세계
30
따라
코
경제
프로
으며
용
ne
##ws
관련
해야
저작
##000
복
이라고
크
손
채
`
의원
허브
저작권자
식
생각
news
C
##통신사
】
【
뉴시스통신사
속
newsis
이후
카
A
취
도록
이나
사회
투자
충
계획
편
15
가장
독
시작
표
순
농
위한
줄
잘
m
조사
현재
돌
아이
자신
국민
준
창
선수
최근
K
기록
후보
별
담
메
그러나
국내
근
진행
?
토
급
k
##레이
걸
사용
질
는다
만들
M
곳
모두
다른
필요
엔
/
큰
L
:
##지만
감독
예정
찾
느
논
온
넘
개발
결과
버
상황
문화
늘
특히
정도
전문
측
대상
축
태
눈
18
하지만
관계자
##스트
사진
사실
절
완
연구
패
책
누
홍
정치
국가
대학
폭
친
골
운영
라며
I
려
갖
브
이어
삼성
길
방송
활동
벌
T
영화
이용
16
13
##시아
평가
애
네
▲
베
##비스
힘
첫
관리
디
25
금융
병
니
기술
경찰
설명
효
트
북한
항
정책
사이
14
접
발표
들어
..
정보
회사
...
「
처럼
최고
으면
」
다양
>
학생
지금
철
하나
따르
끝
기관
규모
##운데
오후
이런
다시
참여
17
과정
향
머
P
볼
대회
추진
제공
동안
나타
인터
당시
가운데
결정
현대
서비스
그리
거나
50
달러
회장
주장
민주
교수
잡
글
막
한편
모습
학교
##랜드
째
커
국제
여성
국회
뿐
제품
가지
행사
그런
산업
##센터
기준
새로
공개
도시
열린
내용
선거
기대
D
홈
처음
판매
다음
B
쓰
시즌
21
률
놓
많이
빠
##인다
키
싶
24
##er
얼
이유
생활
테
100
F
이미
전망
##부터
##리아
성장
층
으나
t
자리
22
가격
증가
나라
갈
발생
알려
사건
부산
시설
확인
보이
##그램
오전
마련
모든
환경
시민
회의
밖
기간
극
##in
##on
##an
게임
플
경쟁
상승
포함
단체
중요
한다는
전국
G
떨
프로그램
상대
송
안전
예상
23
일부
40
먹
다가
입니다
레
관심
수준
범
최대
지방
핵
휴
클
낮
해서
황
운동
윤
직접
난
27
공동
준비
마음
26
듯
외국
만큼
없이
상태
울
발전
사랑
주민
요구
28
스타
쪽
실시
새로운
분석
확대
어려
피해
지적
구성
율
거래
장관
위원회
몰
입장
몸
개인
떠
##대로
터
중심
사고
검찰
수사
전체
J
중앙
돈
센터
너
##이트
생산
가족
성공
##주의
떨어
또한
E
건강
강조
페
강화
일반
s
##BC
특별
맡
시키
효과
대비
계속
여러
소비
##은행
잠
응
밀
한다고
보여
##학교
러
계약
상품
추가
긴
이야
경영
29
희
분야
개선
개월
그렇
구조
존
##or
주택
N
물론
인사
업체
캐
탈
현장
란
방문
199
탄
해외
루
혐
##전자
든
폐
##이스
엄
얻
침
이사
영향
건설
는지
악
어떤
내년
역시
못하
책임
은행
##어나
위원장
돌아
블
선정
귀
그리고
이야기
혐의
정상
활용
보인다
##진다
역사
어서
비롯
시대
자동
제도
작품
이름
육
평균
노력
고객
석
그래
배우
봉
뛰
주요
부분
풀
각각
유지
아직
왕
방식
『
훈
기존
더욱
다면
광주
자유
풍
왔
h
』
시스
노동
펼
공연
대부
31
보험
능
제주
관광
즐
에선
전했
행정
해결
아닌
유럽
##라이
방법
앞서
의미
팔
예산
나오
인터넷
씩
◇
제작
변화
부담
##en
실제
대구
답
시스템
보도
전문가
바로
공격
끌
뜻
혼
60
##마트
설치
▶
현지
안정
##파트
자금
우승
전략
위기
차례
어린
방안
이뤄
못했
케
둘
음악
출연
오늘
기능
인천
압
신청
드러
지속
##라인
먼
어야
LG
대해서
대부분
어떻
w
수익
직원
##데이
참가
집중
쉽
우려
##림픽
개최
콘
참석
TV
역할
인기
의견
선발
대책
협력
지도
적극
반대
b
업무
##ar
해당
##동안
냐
하락
차지
##롯데
##인트
매출
합니다
조성
조정
얘
조직
치료
더라
하루
같이
처리
기회
너무
전화
병원
이제
영국
주식
소속
&
km
죽
롯데
수출
금리
여기
##이지
인정
아파트
보고
여자
가구
선택
자료
격
목표
로부터
얘기
확보
마다
##BS
훈련
2000
사무
사장
SK
!
만나
##al
반면
우선
나가
코스
적용
교통
축구
고려
미래
감사
작업
결국
인지
출신
어요
##운드
##업체
프랑
판단
진출
##하여
보였
팬
꾸
소득
##at
단계
놀
혁
오른
p
라면
독일
또는
가치
능력
검사
남자
선보
자연
70
품
로서
따른
연기
##너지
조선
아무
##스타
나온
시행
웃
올림픽
H
이하
그룹
##한다
승리
퇴
공식
부문
지지
올라
죠
카드
밖에
도움
님
##위기
어느
통합
##리당
공급
대로
몇
##라마
께
통신
친구
해도
마지
상당
겨
복지
자체
이렇
영업
거리
##he
##머니
공사
자동차
##와대
경험
컨
주변
비해
청와대
##린다
전시
R
외국인
분기
환자
합의
비용
이전
우수
민주당
위치
마지막
35
좌
차량
여행
W
브랜드
지수
왜
이동
80
보호
인데
국정
결혼
무대
착
워
도입
아시아
프랑스
분위기
포인트
본부
이해
U
2012
##자리
##무원
밤
지구
새누
##포츠
인상
대출
분양
드라마
중소
의료
공간
류
나타났
종목
논의
위해서
먼저
##어난
녹
##전히
##리스
기본
제기
대신
스마트
글로
캠
머니
단지
총리
슈
숨
종합
2014
달리
이익
덧
대형
현실
무엇
체험
헌
값
과학
암
모델
느냐
출시
여부
의사
붙
방침
높이
즉
청소
헤
비판
##반기
과거
2013
새누리당
디자
조치
##민국
장애
개혁
싸
O
월드
##거리
그동안
소비자
지나
##그룹
논란
발견
일정
리그
부족
소개
##ou
각종
자기
투표
감소
음식
어렵
얼마
어린이
울산
##re
글로벌
수입
행위
러시아
잔
대선
가입
시청
최초
최종
연속
촉
제시
##펀드
맛
쇼
덧붙
198
##디어
위험
좀
대한민국
견
꿈
바람
협상
지급
기획
대응
수요
동시
대전
정신
낙
퍼
경기도
표현
##레스
만든
알려졌
검토
예술
실적
기사
온라인
2011
라도
려는
##공사
등장
찾아
시험
##다는
##소리
32
징
개정
작가
##나라
반응
2010
##it
차이
신고
삶
##리그
넣
티
소식
홍보
##버지
흔
히
그런데
2015
졌
담당
##촬영
흐
나왔
회복
##위원
촬영
##스터
색
외교
;
제한
△
움
스포츠
33
수상
공공
증권
매우
장기
##연구
내려
f
희망
협의
1000
덧붙였
인간
전쟁
그것
부동
누구
수도
전통
g
에너지
강원
재판
본격
제외
핵심
구속
기념
회담
인수
인가
비교
설립
올랐
아야
가까
전달
주가
나서
##디오
안타
제대로
45
광고
컴
공무원
당국
연결
론
졸
방향
사망
주인
시절
빌
##le
회원
빈
숙
##이션
영상
주목
깊
지정
요청
서로
납
그래서
박근
의혹
건축
보유
자산
5000
전자
##프트
열리
고용
등록
유명
겪
전환
아들
JT
바이
인도
시켜
반영
가정
이르
젊
사례
j
공장
활성
교사
JTBC
뉴욕
깨
찬
을까
부동산
박근혜
##증권
##페이지
지하
움직
시기
성과
36
보내
인해
모르
대화
kr
심사
a
서울시
공정
이러
거의
낸
인터뷰
재정
불법
득
거쳐
수원
이루
냈
##스로
질문
500
90
##없이
디자인
구축
투수
프리
스럽
청소년
삼성전자
타이
마을
남성
예방
민간
소리
믿
수술
빨
홈페이지
부상
규정
노래
마이
사태
슬
주제
년대
전기
충분
세대
유치
##러스
제조
##페인
2008
확정
도로
d
더라도
못한
건물
##스크
출전
벗
체제
발언
얼굴
성적
34
솔
세상
흥
혁신
관한
잇
불과
기반
이끌
망
규제
꼽
내부
##es
앞두
선물
사항
##이터
2009
조건
##른다
행복
끼
##위원회
벌어
비율
혜
제출
변호
조금
짜
의회
자세
제안
버스
보장
가수
창업
곡
스스로
스러
##협회
내놓
평화
땅
으로부터
아버지
으니
다만
전남
부모
##ic
영어
딸
자원
으로서
사전
##의원
곧
듣
존재
신문
덕
의해
는가
피부
원인
섬
전북
메이
야구
플레이
홈런
익
목소리
인구
빼
힘들
옮
체계
찍
택
빛
정권
경남
노조
주도
쿠
넘어
비슷
염
갑
남북
인식
펀드
읽
정확
55
지켜
중단
오히
강남
최소
냉
연합
취업
소재
오히려
전해
##리즈
학년
토론
대변
가진
그대로
봉사
자치
##연합
정당
행동
오르
어려운
유통
벤
구매
맥
자본
##가지
##무리
고민
절차
38
으로써
목적
##ing
인근
형태
따라서
엘
푸
머리
##벤트
차원
근무
나섰
도전
투자자
경북
강력
정말
뽑
보수
월드컵
현상
향후
칼
레이
일자리
통화
*
선언
다르
통한
려고
여름
전력
식품
◆
라이
통과
증시
근로
∼
##므로
전반
구체
통일
묻
범죄
조합
한나라
신용
들어가
이벤트
이란
나이
뮤
셈
채권
전년
올리
김정
스타일
정규
300
둔
인물
연금
##ent
스트
가량
부정
신규
생명
홀
액
마무리
the
ww
졸업
www
술
국방
브라
잃
o
축제
이미지
할인
인력
사상
업계
원내
점검
V
##투데이
37
시리즈
시켰
봐
무료
공부
하이
##니스
등급
기초
골프
십
탐
임금
투입
혈
##아들
이탈
한나라당
갔
야당
요즘
머니투데이
재산
위반
수석
잘못
197
승부
밝혀
끊
l
모집
아래
청년
당선
상담
꽃
계기
겨울
ᆞ
##우스
싱
2007
대사
여론
실패
##ig
옥
궁
여전히
스마트폰
금지
대중
계열
법원
곤
나선
뇌
항공
시각
늦
불안
왼
의장
##바일
##요일
##등학교
세월
속도
전혀
Co
주로
파악
그림
의지
소송
##스코
##민주
金
호텔
데뷔
신경
2016
어디
총장
##걱정
경쟁력
2006
약속
체결
짓
마치
IT
결승
걱정
임대
득점
42
자격
##학과
수비
##문화
기억
##수록
멀
꼭
e
쉬
+
설계
##이드
시도
변경
세력
추천
분명
학습
혹
##학생
배치
확실
휴대
비중
48
거부
국립
앨
##주시
핫
부인
의식
65
그녀
보건
##멤버
한화
회견
39
대변인
모바일
##am
구단
충북
교체
##병원
갈등
수행
출발
##회장
이러한
연장
운용
독립
컴퓨
지분
시킨
베이
세종
프로젝
y
해왔
아침
변호사
전용
바다
보고서
##니아
보통
혜택
군사
다이
##준다
집행
심리
이것
실제로
화제
쌓
지사
멤버
활약
만드
순간
넓
정리
부부
##ion
MBC
겸
##리카
대체
일으
세기
43
노인
구입
려면
언급
김영
75
3000
장비
느낌
봤
공모
KT
욕
콜
흑
박사
가져
두산
달성
이곳
재미
화장
달라
펼쳐
허용
##서관
후반
신뢰
바탕
쯤
만족
쏟
균
44
##as
##케팅
바라
41
받아들
컴퓨터
인권
법인
46
확산
특징
기다
불리
언제
특정
금액
이승
단순
연출
무기
##oo
##화점
순위
연구원
올렸
맨
보여주
52
심각
타자
cm
원칙
매각
완화
남편
아름
뜨
프로젝트
발행
사이트
해양
자녀
과제
매장
매년
더불
장면
##un
KBS
가스
여야
49
향상
자주
서울대
실험
##ed
47
접수
원하
요금
아프
차별
다며
##반도
##텐츠
뒷
51
둘러
강한
흘
마케팅
채용
교과
부진
공원
동물
얼마나
캐릭
져
빚
##니까
안보
소통
천만
직장
으면서
패션
오래
캐릭터
##럼프
롭
인한
탑
》
어머니
《
후보자
☞
빅
케이
마감
196
기소
고자
휘
일대
##산업
쓴
미술
벌이
감정
##el
##기자
총선
지식
자는
_
개국
85
아서
##메달
의무
유리
애플
엄마
주인공
##머지
라인
효율
일단
나온다
그만
##어났
##im
마리
눈길
나머지
무역
대우
예비
kg
불구
첨
앵
맺
2017
##드시
아울
나타나
장애인
##산물
2005
유일
다니
특수
##20
폴
걸쳐
법률
나와
해소
소설
본다
##텔레
주주
사라
한다면
어려움
형성
장소
농업
반드시
##교육
##란드
불러
시위
폭력
밑
마찬
##도로
##워크
교육청
상장
배경
세요
입주
평소
마찬가지
##먼트
떠나
원장
소유
Q
기여
충남
내리
꾸준
자랑
촉구
사과
맞춰
53
메시
이어지
2002
##챔피
세트
추정
지키
##업계
54
부대
이재
트럼프
##ot
##아가
PC
전형
협약
괴
옛
이명
옷
흡
##란다
포기
줄이
아내
그러면
체육
업종
웨
##과학
관객
이른
봄
진단
외부
##일보
나갈
불편
연계
선생
최저
느끼
구역
최선
다소
64
이탈리아
뿌
99
모양
집단
##et
작용
철도
비난
해석
틀
알리
주말
접근
본인
육성
준다
56
권력
챙
공유
주의
웃음
##메라
떨어지
##ul
아울러
요인
소방
초기
정비
전주
가슴
요리
연간
판결
명예
문학
훨
장치
척
헌법
##il
개막
출마
##ac
스러운
수업
창출
운전
런
수수
물질
그린
2004
밝히
바뀌
훨씬
옆
기구
02
시점
특성
유엔
획
SBS
국무
복귀
매력
작성
57
##ro
선고
청구
연예
꼬
경주
위협
전투
고속
묘
컬
절반
쌍
벽
앨범
어도
##지털
##건설
95
법안
긍
챔피
기부
##ht
좋아
철저
반발
##플레이
59
##기업
응답
초반
아동
써
직후
앵커
단독
##사일
테러
주문
피해자
동의
면적
민족
측면
한반도
앉
빠져
라운드
선진
관람
문재
58
매수
점수
지시
오픈
완성
처분
세금
관광객
부장
##대학교
탓
교류
쇼핑
조차
李
근거
질환
흐름
##토리
학부
늘어나
##st
국토
##비아
매일
돼야
콘텐츠
유로
감안
상반기
노동자
##나무
돕
비행
세월호
텔레
63
인증
갤
주년
##se
끝나
구간
왼쪽
영역
아름다
실력
빠르
긍정
국회의원
##연구원
편의
보상
화학
충격
인하
적절
연대
짧
수용
브라질
방지
사정
##거운
클럽
공천
번호
들여
시킬
동원
진정
스페인
빠른
보조
슈퍼
샤
상위
바꾸
취임
별도
조기
불가
##and
디지털
넥
비상
개편
Y
만난
정기
지상
된다는
폐지
호주
헬
한국인
실점
부르
주차
공약
중간
아주
미치
유가
털
환율
고급
##물관
정의
진보
모임
하반기
직업
거듭
쓸
##총리
캠프
##피스
바란다
인생
생기
##티즌
동기
김성
메시지
##ight
누리
해온
뛰어
위안
##트워크
선두
안내
##마을
##중앙
근로자
##다고
춘
부지
홍콩
연주
66
195
전면
죄
##뉴스
크리스
그리스
KB
청주
in
2003
##시장
긴장
충분히
대법
##의회
강하
이명박
기아
외환
이닝
융
단속
초청
##항공
72
지배
카메라
당초
으려
김태
모아
표시
센
니까
##거래
발굴
지휘
부채
##TA
균형
웹
줬
연습
고위
임명
허가
성격
국정원
동아
당연
##자기
##트리
박지
잇따
끌어
메이저
데이터
므로
고교
아마
공항
로운
챔피언
of
나누
이내
##세대
밝힌
처벌
62
##tp
연말
뭐
프리미
흔들
진입
굳
저녁
확장
네티즌
후원
짜리
실질
요소
기금
걷
지도자
여당
61
노선
오랜
유도
강원도
출범
밥
악화
미군
더니
살펴
태도
98
사업자
거주
도착
폭발
총재
84
##서트
절대
개입
##id
당신
동료
재단
임시
꺼
가르
움직임
열린다
지점
굴
백만
승인
증거
코스피
희생
입학
##바이
##공원
복합
4000
주거
##웨어
73
집계
개방
빨리
세포
취재
나눠
경선
즐기
힐
작년
페이스
뮤지
##담회
##직원
##청장
섭
타격
화면
눈물
블랙
68
##체육
##실장
당부
미사일
물량
##심히
실천
400
양국
천안
##리트
객
벨
##으며
##리오
긴급
##직자
혼자
194
초등
##티브
부품
돌파
현금
대만
##프라
나무
운행
기기
포항
주일
품질
부여
기계
성남
##웨이
김종
과장
물가
손실
코치
작전
양성
일상
벗어나
##무부
새롭
실현
내렸
매매
셨
개념
##간다
주관
67
가까운
mm
기울
투명
극복
##하이
취지
마저
가을
배출
대결
역대
77
한데
즐길
그러면서
미리
합격
범위
for
비밀
〈
수치
형사
언어
수정
다리
동부
덜
사퇴
〉
띠
기온
150
##케이
이슈
상징
보안
연구소
감염
부처
리더
제주도
채널
공화
n
이정
집회
시내
상승세
커피
을지
하늘
의심
부회장
설정
발사
아르
소프트
독자
내세
컵
ht
맹
소화
미디어
트위
토지
코스닥
혁명
쌀
수학
경고
공시
##ub
이틀
베트
##ol
인재
신설
당했
단위
대학생
기타
공감
손해
식사
꾸준히
축소
동반
보증
알아
크기
생태
76
74
개봉
편성
##고기
증상
응원
완전히
겁
노무
머물
갖춘
일제
태양
반도
경기장
##사자
에스
갖추
##ay
제재
##NS
오바
단기
69
수단
소장
제일
역량
간담회
조작
지표
추세
적자
고양
##재단
학부모
##공업
열심히
치열
##기술
드러났
형식
강세
일어나
##ang
버리
계열사
문의
의한
개정안
71
더불어
창조
떨어진
지하철
장점
고통
투어
출판
호흡
아쉬
앱
주최
새벽
AP
무리
##iv
이자
오바마
통제
이라크
##파크
압박
##다가
펼치
이른바
이기
우주
똑
이종
농가
##IA
성능
꾼
반복
88
잊
##로스
##니어
CE
##대학
X
2001
##월드
##ch
정지
제거
원자
##리스트
##레이드
매입
베트남
동일
자전
통계
취소
6000
성명
다수
여건
##지수
일까
화려
연수
8000
예측
소녀
도쿄
검증
항상
강제
비리
횡
다운
완료
종교
이사장
##투자
김동
트위터
낼
표정
수립
##사장
선임
한계
판사
올려
부실
주력
무슨
정해
단일
금메달
여러분
사용자
베이징
분리
차관
자율
유니
내린
##py
못해
채택
검색
엑
특허
→
수능
떨어졌
##야구
런던
누가
탄생
이행
##ter
##학자
교과서
심의
알려진
끈
당장
가까이
에이
법정
지요
##경제
예선
##나다
알려져
밴
할지
상호
시범
싸움
돌아가
##다른
상임
학원
78
합병
의도
##게임
완벽
강의
시청자
신한
##드리
가동
##테인
석유
회계
힘든
000
##동차
사법
앤
사무실
##국장
예고
끝난
CJ
매출액
띄
##자체
이용자
벤처
잉
##연구소
민주주의
제목
멋
나올
파업
영장
97
파워
박정
첨단
썼
실업
광장
택시
분류
##부장
기지
숲
지출
협조
화재
##라스
##30
##리어
##연맹
맞춤
삭
##디션
임원
##뮤니
공단
모여
말씀
##스티
가졌
순매
향해
건립
기상
여의
발휘
○
엄청
당하
##이너
##ont
불만
조명
##om
명령
카페
79
칠
##10
##영상
경계
파이
가리
전해졌
농구
차단
원래
자극
권리
동양
노출
전원
지자체
2018
부과
전공
##어날
호소
##개발
놀이
연봉
파리
##철수
는다는
활발
된다고
대기
경력
직전
연방
이사회
##공항
물리
개성
심판
이스
총회
##시안
한테
뿌리
서민
시상
물러
진술
낳
실무
놀라
매체
대리
진료
영입
오리
아름다운
혹은
##50
이외
표준
FTA
물건
본사
연락
인원
캐나다
지진
오른쪽
96
재무
달하
전개
풍부
쟁
아도
메르
미만
##임스
87
캡
##친다
들어갔
콘서트
민원
코리아
##국제
네트워크
편집
정치인
계층
방어
##바로
가로
82
성인
종료
무려
짐
##터리
이래
이웃
클래
남녀
7000
국내외
데이
답변
됩
갑자기
자신감
문자
탁
보냈
늘어난
곳곳
종류
그쳤
느껴
엔진
합리
자전거
은퇴
오염
성분
덕분
스위
##환경
진짜
연극
선보이
http
취득
94
대안
결론
to
아이템
스피
생긴
은데
연설
유출
늘리
만화
변동
합류
신인
창원
마쳤
기분
르
파견
위주
옮겨
사령
##우드
꺾
개설
아이디어
김재
by
국방부
86
식당
개별
노무현
##정부
실수
샌
SNS
##ong
결의
수수료
뮤지컬
정체
사기
낭
관측
돌려
##천시
시선
기다리
만났
조언
만약
주자
딱
따뜻
용인
징역
깔
계산
재료
대법원
윈
저축
##ad
고문
됩니다
필수
에어
어울
살아
반도체
시사
점유
93
선호
결제
##총장
이성
부탁
담배
밟
체포
죽음
뛰어난
평창
##FA
취약
만남
최대한
권한
통보
해상
스트레스
내다
가득
칭
침체
했었
시인
제정
지명
감시
급등
팀장
청문
바꿔
조절
모으
##르트
92
김대
대폭
현행
##ir
교육부
그냥
커뮤니
지대
##right
진실
안철수
상상
바닥
계좌
라디오
펜
자문
전세
백화점
■
선배
냐는
81
아요
##복지
셀
##테인먼트
조달
극장
노사
자살
훌
추석
##스토
##시티
본부장
발매
저지
충돌
마시
##싱턴
투쟁
미니
도와
현안
협정
경비
문재인
re
간부
합동
진다
##자동차
남부
##TV
논리
나타내
평생
등판
마친
##ation
페이스북
브리
드리
##키스
역전
세우
예금
김현
해명
영양
캠페인
다하
경찰서
그만큼
어깨
정규직
고등학교
##르크
조례
훼
서류
동영상
고발
CEO
89
선출
파트
고향
선보였
##란히
타점
##PG
따로
몽
여유
올린
접촉
##드러
##us
거론
통상
수많
91
이론
과연
판정
달려
연승
##정치
났
쥐
키우
유기
##터테인먼트
좁
임기
배당
바르
날씨
출산
입찰
공기
선박
##관광
그럼
출입
비서
그려
설비
마이크
대상자
유사
호남
당한
묶
점차
이민
##코리아
지도부
적발
추구
정원
중동
수급
궁금
##스턴
열렸
완전
협회
생존
##경찰
어제
정식
83
섹
중앙일보
랭
예약
농촌
동생
##pyright
획득
##호선
보완
할머니
만기
워싱턴
부당
해졌
대처
구글
인민
아닌가
공산
보급
인공
구분
떠올
600
테이
재판부
120
뚜
IS
##로드
메뉴
돋
블루
포스코
됨
기대감
부서
거두
비즈
상금
결합
강도
##진흥
여의도
신속
의문
아프리카
저렴
주어
질병
는데요
징계
아빠
상처
면접
절감
테마
깜
품목
출장
##산시
음반
##너스
매달
펴
교육감
##케이션
잠시
근본
투데이
배상
담보
교환
문제점
##용차
참가자
좋아하
##나이
장학
프리미엄
##호텔
연패
패배
초대
떼
상무
간단
셔
휴가
00
가계
불가피
훼손
LA
##오프
약간
##파이
이적
사안
그래도
보낸
멘
무시
IC
Copyright
들어서
9000
대행
철학
EU
##워드
이슬
##지원
자아
##지사
예전
수영
로써
수시
손님
춤
고정
네이
In
텔레콤
묵
테스트
상환
연예인
청약
겁니다
열차
셋
체력
##축구
문화재
원정
모았
보관
감각
창의
떠오
세워
동해
벌였
타이틀
김진
둘째
FC
신호
대학원
모니
끝내
혼란
틈
파괴
##러리
##은이
##공단
##라엘
와인
움직이
##금융
맞추
해군
go
자사
살리
and
PD
유산
퇴직
침해
##ur
현황
기원
정착
설득
화장품
신세
이영
이주
싫
허리
서명
광역
급증
무장
도심
아예
취하
최다
연령
이스라엘
칸
##ap
안팎
축하
쇠
심장
선진국
특검
게다가
상당히
범행
##회사
집권
에겐
소형
가입자
널
다섯
재생
명단
시가
빠지
원전
똑같
##마스
##가락
##테크
##카드
찬성
증권사
##백화점
논문
적합
신분
붕
부사장
스토리
선전
소속사
교회
농협
이어졌
중계
##시코
폐기
KIA
비즈니스
명품
컬러
행진
나설
부시
토대
측정
점점
모른다
김경
괜
풀이
강사
잇따라
신화
분쟁
상업
수리
제약
고기
##이즈
입법
박물관
게시
무게
필리
마디
피하
예능
흉
##버그
내일
경상
길이
실내
떨어져
단장
초과
모니터
공포
재난
##업자
임직원
애니
총액
고령
약세
현대차
##EC
##의자
MS
강연
던지
갤럭
통증
##관리
##닉스
본선
이수
부작
##들이
치러
보험료
신임
김기
상가
숫
엠
중대
산하
연휴
컸
뼈
커지
아닐
살인
성향
재개
##디아
유동
귀국
의결
소련
##카오
몰려
출석
사이버
소프트웨어
##식품
청문회
스크
복잡
사유
한정
음성
못한다
탄핵
열정
수지
과목
거기
##방송
신체
도서관
라면서
##자원
휴식
앞둔
거뒀
셰
지주
컨설
듯이
수주
쾌
감동
곧바로
##람회
##에이
아이폰
##ut
##난다
김민
쳐
서부
03
##덜란드
IM
독특
거대
##퍼스
마라
줘
소감
##중공업
벌어지
구상
댄
배제
후배
매도
유력
##ED
편리
네덜란드
촉진
나타냈
윌
멕
수집
##저스
편지
콩
상관
북부
주부
동네
거짓
아웃
교실
적응
##정보
요원
##ow
단어
참고
디스
매주
##민주당
방해
독도
Jc
못할
잠실
드러냈
튀
무릎
결코
직무
숫자
클린
여수
팝
개통
느낄
##로그
터뜨
모자
주간
뮤직
##힌다
스카
대학교
애정
김상
당일
조용
생겼
멜
FI
든지
일시
항의
한때
오피스
이슬람
터키
##클릭
시정
중학교
대장
엉
멈
담긴
유형
총괄
#
##에스
개소
중구
유입
800
##ontent
소환
전하
##쇼핑
엄청난
작곡
박찬
대해선
내내
##겨레
##ct
마크
변신
폐쇄
th
섭취
새정치
아무리
부위
MC
##피아
##레기
힘입
흥미
##비전
고소
잠재
폭행
한강
##의장
들어오
GS
채무
몫
앙
193
##안전
화성
무너
김지
건조
한지
바라보
공동체
부산시
##브리
김용
치르
둘러싼
##ram
증명
사업비
탈락
CC
질서
i
자고
한겨레
경매
그간
드러나
프로야구
섞
대가
사무총장
허위
사드
근육
소년
세이
흘러
돼지
강릉
이병
붉
01
바람직
살펴보
급여
멕시코
유학
쓰레기
##td
유발
넥센
바이러스
서해
어려워
충청
포럼
쏘
분명히
미세
나눔
포장
이뤄졌
항목
서구
저장
대답
펼쳤
유저
시리아
과도
참사
바이오
부패
복원
v
팽
지연
##em
녹색
##대문
천억
의존
천연
보육
##CC
##op
1990
대단
제조업
##생명
설명회
평양
##플러스
변수
쫓
중반
핀
집안
신중
연다
전시회
앞세
명확
핫클릭
모색
##평양
노후
무한
코너
접속
거치
상한
매니
해요
기에
##약품
나아가
쿼
후속
별로
링
압력
건너
탑재
일종
필리핀
간다
승점
텐
전지
걸리
플랫
뭔
김대중
주석
대거
베스트
경향
식물
조심
주체
더해
부자
해제
점포
입증
휴대폰
##스키
고등
높였
위성
선사
김병
년도
##포르
내수
##셔널
강경
##메이션
싱글
배려
지내
서초
고시
진화
재벌
다녀
실행
연인
쏠
로봇
##베이
한도
차기
밴드
토론회
공통
실태
확충
사원
분노
초점
주차장
스테
추적
편안
타율
곽
보일
##종합
공직
사우
아시안
##ce
입시
전부
용역
국장
선보인다
아우
The
격차
유행
세웠
인프라
톱
협의회
발달
야권
공략
##이익
꼴
닭
메르스
급격
태국
사단
이혼
영향력
공제
피아
스위스
깨끗
##레일
이대
700
수색
빙
도중
소중
나중
발급
넷
##ouse
뜨거운
즉각
굉
동맹
중점
##리포
주위
대금
납부
1999
##IS
광주시
유권자
동남
일자
임신
잉글
앞선
깊이
규칙
포르
든다
주연
할까
##ss
고사
시달
드러내
고요
의뢰
##뱅크
벌써
##현진
읍
찾아가
1998
전제
봐야
버렸
오프
들어간
전후
영화제
그럴
인문
빠진
학술
솔직
고개
형제
종이
괜찮
동작
아베
##80
문서
가상
실종
공화당
춘천
무선
선도
나갔
기조
##ag
맞서
살해
연료
장식
청사
다행
케이블
다루
윤리
김치
통해서
온도
돋보
언더
1500
텍
소문
##네시아
농산물
프레
구하
비교적
가공
박주
받아들이
##지어
조항
꼼
구현
으므로
개그
렌
이중
금속
지나치
부가
레드
잖
군수
192
시중
우즈
##한국
설문
톤
포털
상영
일방
대외
##트로
파트너
공세
보조금
방사
용산
성폭
개장
그게
안양
핸
인연
박수
각오
##말로
촛
재배
정하
환영
압수
조지
##아이
올라가
노트
##회의
군인
갤럭시
붕괴
일으키
일원
실정
과세
공인
세부
조각
랭킹
상하이
트렌
몰아
메모
##달러
진상
맥주
빠졌
벌금
주류
냄
생물
컨설팅
##예술
굉장
신입
빗
토록
##조트
한층
휩
190
Ltd
##어트
부작용
##스티벌
높여
동북
내다봤
보존
맞이
일반인
벼
순환
겹
찌
비행기
착수
갖춰
AI
주재
##um
승객
이승엽
행정부
클래식
규명
개헌
액션
사무소
는다고
캘
입지
싱가
진로
인용
좌우
학기
당분
비타
대한항공
용품
중도
250
##사회
나선다
번역
출자
##으나
군대
여객
늘어났
이른다
바른
뒤집
국세
시상식
일간
05
깜짝
덩
중순
##통합
냉장
비디오
밀려
관중
해진
로마
해운
끼리
진영
순수
전파
듀
줄여
주기
뚜렷
커뮤니티
김연
여권
위축
누적
##TE
인도네시아
아카
즉시
##지법
유해
촛불
산림
중부
섬유
법무부
정밀
##라도
슛
191
가맹
지켜보
뚫
과시
워크
세미
##민주연합
융합
최신
두려
화물
벌어진
플랫폼
우위
국채
철저히
폭탄
하위
소수
박스
##루션
NC
##rama
부각
착용
신선
고전
각자
농민
땐
종로
응급
새해
로스
장르
잉글랜드
둔화
##ine
돌입
Drama
없애
표명
김수
아무런
대목
##레인
만원
매치
트리
흰
건전
지닌
멀티
朴
신동
스키
전당
##Hub
##선수
##소프트
##House
##ver
전담
된다면
Jcontent
DramaHouse
JcontentHub
추억
만날
사업장
기후
증진
육군
大
FA
아기
완공
IP
제국
메이저리그
##사이트
남기
창작
##ula
##런스
##안타
수험
form
##무역
압도
저항
아나
관세
스웨
한글
그랬
최소한
실장
강정
건의
마침
버전
##노동
포스트
추락
덮
습니까
어른
생겨
시급
몬
들이
누군
가시
##미디어
영웅
1997
뭉
비전
정성
배정
##기구
넘겨
동참
목숨
경찰청
도발
마당
준공
마르
와이
타수
황금
남쪽
담겨
측근
용기
분양가
생길
당사자
비자
옵
넘치
해고
디자이너
게재
캡처
학자
달한다
##os
보인
심지어
흥행
격려
억제
베타
책임자
엔터테인먼트
공헌
당연히
잖아
노리
통산
의학
갈수록
싱가포르
반박
인류
수록
단순히
특유
가전
원유
1980
##th
블록
핑
선수단
무상
급락
##지방
음주
커플
항공기
시계
손상
겨냥
##스포
##려야
마트
명칭
음료
##수산
##하우
골프장
발효
자국
승진
각국
당분간
앞장
주행
박영
강점
##협의회
흑자
소지
클라
이지
훌륭
태풍
도덕
중국인
US
소요
선제
헤어
래
쇼핑몰
내달
외교부
재물
마운드
느낀
제고
목포
카카오
##사이
더불어민주당
근처
구제
중견
부총리
formula
소외
비타민
##다면
족
견해
해안
강남구
기름
조화
과감
실망
전역
대량
분당
추모
장착
고유
##DP
흡수
시원
##마크
철회
엇
존중
구도
고속도로
의류
록
탈출
양상
스케
상당수
맑
브리핑
행보
저자
도서
##ab
애니메이션
들려
##조건
몰랐
에서부터
금호
무용
흔히
파일
신흥
굉장히
널리
대구시
관찰
소셜
지위
저희
주한
##원장
햇
##데미
다짐
결심
차장
코드
타선
대원
##보드
주전
습관
주소
영광
NH
쿼터
류현진
##구장
박지성
해설
오해
모은
상인
가게
##봐야
그래픽
직장인
달했
부활
북쪽
유전자
김정은
유예
원리
교황
스런
운전자
쇄
##서울
민감
클린턴
입원
방학
과일
연세대
대륙
어려울
취급
붙잡
진학
##프리
개사
##버스
##ive
곁
고도
사로
내각
##all
고백
디스플레이
해준다
이끄
고수
화이트
##레이션
세운
가요
파티
철강
학위
신장
리더십
물류
ch
구미
자식
내외
극단
양식
r
##사스
시세
지향
와서
여서
권고
정서
##라운드
##아시아
##키지
적정
##시마
느라
그치
스크린
밸
##타운
나쁜
줄기
##조선
박찬호
현역
##생활
외모
옹
##연히
기쁨
첫째
미드
CN
이뤄진
독서
유아
대체로
남겼
방위
실시간
땀
승용차
건수
경위
연애
위안부
##독교
##티나
110
끊임
##끄러
상생
대대
자회사
입단
구호
나란히
김희
##로운
웅
사로잡
투구
빌려
네요
결혼식
금감
##바지
뇌물
솔로
의상
장악
원주
금강
위탁
즐거
도약
드라이
무사
투기
막판
수렴
누르
경영자
##천군
감성
도민
충전
아메
기성
시술
명절
돌아오
정수
계절
지능
##투자증권
플레이오프
댓
보전
쉬운
##로리
정확히
자마
풍경
애초
IMF
골드
일각
ha
타임
금품
운명
단말
로비
조합원
고생
하락세
친박
국무총리
부양
증정
지낸
##드로
방영
유승
께서
게이
##70
야외
지냈
납품
탄력
최악
의당
복수
심한
걸려
반성
롤
##무성
보여준다
##일리
앓
운송
고려대
##hot
자라
비서관
박상
불거
순매수
동력
닫
##져야
중장
스페
감축
일어난
스튜
김해
제휴
미소
예산안
##스테
넘기
##고속
경로
일일
당원
닮
체크
화장실
공군
심화
민생
재능
이건
볼넷
요건
농장
병행
한국전
불교
##감독
일환
판매량
평등
전월
##나마
삼진
가방
박람회
권위
시나
차익
밝혀졌
연관
뭔가
일찍
논쟁
엘리
아트
증인
장수
오가
St
제작진
비례
조리
##노총
어떠
턱
회전
차질
##OC
유망
간접
남겨
유족
해체
##렉스
or
추격
누군가
##페라
2020
스웨덴
지침
180
하여
가질
증언
신세계
##하우스
거든
대립
한국어
새정치민주연합
빠져나
FIFA
가사
지인
##타이
향한
강좌
수상자
아쉬움
수여
##회관
작동
어린이집
피로
닥
학력
결승전
임무
위생
냉장고
발전소
##대회
##ore
초래
무조건
##60
패키지
젊은이
자리잡
재해
평택
친환경
특위
받아들여
호응
관점
타석
키워
소폭
유연
돌아온
학과
공학
난다
고대
발목
자마자
김광
비록
독점
리스크
금전
컨디션
야간
진흥
오랫
자제
세미나
내정
관람객
편입
히트
흡연
냄새
##키스탄
역임
##ia
출근
노하우
원활
낮추
미칠
가볍
세무
빼앗
스탠
만만
##운동
수습
東
안심
서울중앙
물품
장사
에다
차세대
분할
강행
왜곡
##보험
조만
숙박
교섭
동향
한류
##도시
길방
가벼
CD
관행
근대
무산
당첨
유세
일관
가속
##립니다
유효
전액
칭찬
##아웃
you
엄격
전무
색깔
증대
짝
명의
상원
트레이
일요일
수강
동구
아쉽
간판
##스카
##40
최적
젖
##악관
돌리
늘어날
장학금
티켓
##프로
멀리
이태
충실
언더파
신라
지리
종전
장난
##박물관
드림
출동
명문
걸음
회수
가깝
오랫동안
##이크
흐르
재원
잦
혈액
##oc
오브
다이어트
덴
끄
찰
신부
중개
코트
일본인
IB
##다시
농림
시공
인턴
##월드컵
구장
기독교
공직자
##닷컴
워낙
##피탈
유상
화합
청산
특화
시신
##FC
영동
지역구
는다면
##세서
추첨
스프
성실
##받침
##우리
공고
한인
프린
되돌
랑
보여줬
복구
감상
수당
팩
##북도
##ak
##스팅
서양
강수
몰리
##다니
우울
슬로
성형
세탁
##학회
조만간
위상
거래소
국산
김포
용어
이념
철거
동점
목사
한창
네이버
조세
심하
뷰
댓글
##화문
장군
달아
이룬
##OS
##hoto
플래
정작
장례
##리티
오피스텔
멸
군산
##런트
김정일
아무개
아끼
며칠
배달
##아버지
기상청
수험생
임상
net
몇몇
뒤늦
##기획
충족
증세
수면
하우스
##국대
마주
간호
확신
강동
버린
중고
운항
##ark
배포
잡지
개척
에요
창립
더블
학년도
코미
130
빌딩
익숙
사라지
배터리
느꼈
지목
청장
밭
급식
극대
기법
사후
현직
오스트
국면
페스티벌
##미널
잡아
어울리
웰
꼽히
中
안동
윈도
국경
##먼지
기증
##고속도로
떠났
샘
거절
적립
##다리
공중
유치원
스코
아라
##art
바둑
맞대
고지
궤
##진영
해방
일치
영남
내비
진주
낚
올바
입구
사연
인치
스님
경찰관
끌어올
남아
최강
스피드
관절
영하
반전
안타까
출국
백악관
착공
GM
##정당
##일랜드
단말기
뛰어나
트렌드
##어도
반등
거친
번지
위로
06
논술
댄스
패스
객관
교장
##태프
교원
장성
황제
##어스
엇갈
기재
나름
전선
뻔
정통
기쁘
벌어졌
쟁점
뒷받침
상향
##ell
떠오르
소위
테크
##og
##est
포착
##운서
##여대
보좌
##처럼
기획재
쳤
오를
단원
중독
용지
도박
또다시
가해
텍사스
여사
가난
뽐
메인
끝났
회동
확률
항소
st
세종시
##머리
금감원
##번에
면제
낯
##통합당
명성
훔
갚
##마켓
담당자
되찾
박성
공격수
##다수
여겨
##BA
이겨
##데이트
태극
아카데미
크리스마스
자칫
크루
양도
한국은행
베이스
솔루션
박종
상대방
사인
##21
04
쓰이
해수
정유
北
119
구나
미국인
입사
토크
##긴다
이경
이뤄질
세제
입국
여지
아나운서
공방
명분
부근
최순
걸렸
모금
밀어
태평양
살려
당당
보강
숨진
미드필
약물
쓰러
발의
자아냈
특집
##ani
남한
돌아왔
오토
챙기
##리포니아
##세점
유니폼
##신문
나요
철수
##NA
##낸다
##ov
민주통합당
양산
고가
탑승
SM
연상
최경
이집
관해
방치
러브
상식
김승
##뜨리
처지
일산
1994
정면
막대
해줄
적당
스티
##라이트
박정희
기량
마약
서버
용도
옳
노동부
##ec
패턴
시나리오
될지
통하
통장
핫뉴스
지부
비싼
##비드
외면
이집트
업데이트
말레이
##ra
욕심
##연합회
놨
면역
기도
제이
적시
국세청
의약품
무관
평범
1970
##로나
떡
조종
전설
내놨
##아리
##MC
##화재
자존
늘려
##경기
안산
적어도
횡령
사내
jo
칩
수위
##남도
바뀐
다저스
강요
전직
벌인
하드
단축
회관
김주
아랍
결성
녹화
토요일
동화
피고
캘리포니아
##지검
용량
처방
1995
에이스
내보
못지
심정
탈당
다룬
HD
구성원
미안
심해
꼼꼼
##데스
아이돌
사립
둥
##올림픽
직구
태어난
GDP
사망자
선보인
잭
출간
한은
예외
드린다
가이드
음식점
##티드
백억
김일
환경부
1996
도구
##메일
거둔
음원
실용
겉
빵
다름
유재
불렀
인천시
베타뉴스
붙여
자민
아르헨
형편
포트
변하
원자력
CCTV
던졌
함유
선거구
송파
문구
민영
유전
지검
꼽힌다
씻
##PC
남해
공익
공백
였으며
진심
접어
진지
##ie
녹음
##협력
점심
성사
가끔
편하
사찰
사흘
느냐는
##포트
##어놓
##골프
오페라
깎
이현
회의실
감사원
대사관
전경
##시오
공정위
짚
독재
골목
900
##부르크
재직
특별법
한양
실리
##구나
조회
##경찰서
LED
메달
낫
면담
연맹
벌여
##머스
응시
아르헨티나
급속
KBO
블로그
희생자
발간
그나마
확실히
홀로
##ity
##스트라
기업인
포토
189
정세
캔
공기업
감면
관할
눈치
##어리
##법인
골든
소음
공조
고르
그저
초등학교
거짓말
##통상
짙
##주의자
들어선
탱
개시
할리
##더스
무렵
제의
순이익
잠수
무죄
##공화
구청장
순천
해진다
분열
##ers
수확
합작
대다수
그곳
동계
추산
건축물
어선
이산
광화문
자면
당기
통행
국토부
김형
올해
수비수
푼
나아
해경
붐
##one
가중
싼
삭제
단행
앞세워
둘러싸
##NG
보여준
갖췄
남구
거점
힐링
랩
박원
어치
채소
계단
이천
관여
##튜브
유대
답답
개관
청주시
##ill
타당
나간
신발
본질
##해야
해질
클리
조처
복지부
목격
코미디
견제
손가락
DJ
북미
언니
표면
마이크로
부천
메일
체중
채권단
##수원
140
닿
##미술
##널드
##PGA
소매
수혜
원료
방송사
이게
옮기
합쳐
당선자
엿
신기
관료
첼
##셉트
홍성
이듬
우유
##버트
거든요
복무
차트
라이브
자발
너무나
싸이
난민
만족도
으니까
곰
매니저
전적
탄탄
오름
단백
공주
넘어가
안다
상실
문건
##라이나
##단지
잖아요
지원금
##로지
흔적
신축
폴란드
##크스
##커스
등지
##대전
불량
정무
당뇨
들어온
보험사
굳이
베를
고인
으론
##터스
매월
캠퍼스
Ch
떠난
전술
아리
벤치
검진
기아차
##OU
##주군
꽤
여인
방한
터미널
인테
소집
tv
열기
##22
##래프트
##up
들어갈
##DI
관내
안성
##ero
위대
이듬해
가려
핸드
몸매
회원국
한진
##다보
두드러
나타난
딜
해임
시킨다
싸우
열릴
패러
전교
##캠프
창단
불황
윌리
여파
순서
마이클
II
무력
별다른
미세먼지
말레이시아
리라
로드
굿
숭
꺼내
##ip
선행
협동
당황
횟
시카
##리케이션
명시
내역
##공화국
협박
##과학기술
위해선
놓치
포르투
면허
당선인
인디
대하
##한국당
아스
패널
즐겨
별세
응답자
교정
재활
상공
사격
김선
LTE
스튜디오
민심
선착
끊임없이
##관위
##니스트
비하
원작
##조합
##랑이
이마트
램
국적
고리
##본다
분산
겨우
생계
상정
생생
박태
중시
이윤
올바른
멋진
법무
플랜
##줘야
이화
고서
지니
##ER
##축구연맹
통치
##ry
유용
하원
박준
다문화
커졌
멘토
복용
##ee
뭘
트로
개교
상주
##거래소
충주
폭로
흔들리
그랜드
검거
평론
##포구
쇠고기
##사업
##둥이
동포
태어나
병역
슈팅
양호
마사
유가족
페이지
진도
南
체납
등산
MV
##news
버디
##if
플레이어
시티
최순실
##PS
참모
수송
만성
북핵
##릭스
정선
존경
입력
정국
부드러
한우
걸린
치유
끈다
매물
변호인
종종
영토
원고
구름
좀더
##풀이
표기
외치
농어
부스
영원
색상
##잡이
김연아
일어났
동서
따져
지불
따지
##디움
입건
우편
모범
특강
명목
오버
양보
무더
도모
외국어
챙겨
이어질
납치
금연
삽
어쩌
##디스
시카고
단체장
묘사
행태
##lee
콤
기울이
기술력
레스토
하천
##하나
##톨릭
제조업체
펼쳐진다
프라
천재
이인
레벨
저하
##체육관
알아보
얼음
모드
알렸
이젠
사냥
##키퍼
레스토랑
딴
인명
##아트
퇴진
셋째
게시판
부친
리드
##kim
학문
농도
유로존
조율
전산
준수
올릴
정황
발탁
육상
루수
사물
이식
세이브
업그
수분
스페셜
##ly
야생
한꺼
그걸
열애
최상
메모리
톡
원가
어우
로맨
올스타
튼
여신
금융감독
태블
별명
언제나
문장
만든다
플러스
믿음
병력
닦
의하
문명
특혜
연일
도달
리얼
##90
kj
주사
비서실장
줄일
무난
160
##버리
혹시
##두리
골라
행운
##들여
영등
피아노
##서비스
da
##후군
침몰
골키퍼
##스레
단백질
북구
업그레이드
##셀로나
##먼스
비만
과잉
육아
무서
##25
CP
청원
김무성
꼬리
한꺼번에
##타르
제치
즐거운
테이블
is
불안감
시비
플라
하이닉스
국민은행
주유
합계
프로듀
Z
##진흥원
이어진
이창
진전
봐도
스트라이
피의자
자존심
린
창고
##물산
치매
어쩔
할리우드
루타
비결
##어진
절실
mt
중소기업
##덩이
파격
선포
##스타인
자격증
옵션
BM
월급
조현
이뤘
맞춘
해피
##ook
신사
간편
공업
동결
해지
눌
어르
고조
2500
등록금
프리미어
##TX
원화
낸다
터치
1200
탁월
동성
세련
고스
하향
고무
##등록
상속
사령관
자유한국당
깔끔
##라리
08
점령
이준
실전
높일
바깥
##데이터
경관
인접
바르셀로나
대개
감추
확립
업소
호조
비싸
공작
남양
서식
인테리어
가르치
아닙
시속
다큐
재계
고장
위장
##다란
헬기
##디자
일으킨
타이어
1987
조속
부착
##모델
종사자
청탁
섹시
브라운
소득세
일제히
오빠
살아남
했으며
상급
##ds
경보
증자
경영진
시달리
##ist
포수
국비
병사
킹
##ust
발주
부딪
중화
미드필더
편의점
앞장서
↑
마라톤
파문
프랜
인형
레인
곤란
CNN
강호
넘어섰
가벼운
감자
끓
##DA
활력
우정
당해
중립
동북아
크림
##ung
체인
##LS
전격
101
환상
##업소
공판
무인
프라이
마켓
할아버지
광복
삭감
실습
국어
과학자
델
자이
인체
노르
타협
가맹점
남긴
원천
일선
시너지
식량
##비디오
즐겁
지혜
윌리엄
만달러
##지니어
##hy
##리즘
한전
헤드
박재
맘
넘어서
울산시
고마
촌
김장
포르투갈
마땅
합성
차림
##IC
##외선
큐
타운
열풍
##비치
오사
유인
탈퇴
현대중공업
어우러
렀
tvN
이례
동아리
가짜
텔레비전
후쿠
##관광부
##저우
불참
그건
명백
쇄신
메가
호수
##과장
항공사
##매매
호르
유럽연합
백신
예보
##CD
월세
출생
불펜
무척
생애
참석자
죄송
킬
鄭
빈곤
오일
##와이
소니
통일부
기용
우크
베를린
잎
##기에
거세
데려
안타깝
##파원
유의
자매
속하
채워
제어
팔레
꾸며
레이스
스타트
##TO
썰
이대호
경북도
갑작
크로스
해준
베르
비트
##지션
어려웠
구멍
유감
살아가
성장세
내릴
의정
푸른
##선수권
뛰어넘
대박
두루
美
조류
전방
생일
보편
빨간
재현
절약
급격히
##엑스
경호
임용
라이프
선거법
##보호
##투스
치솟
오프라인
MVP
피고인
어떠한
##팀장
##드리드
박세
즐거움
재발
취재진
교도
향하
아닐까
MB
##por
도청
그라운드
##널리스트
제자
선보일
해법
##사관
굵
대피
약화
아산
Ne
##퍼런스
청춘
침묵
카이
단식
##리안
고구
다를
화해
출제
뛰어들
우세
안건
해볼
책정
권유
들어왔
소금
기숙
머물렀
횟수
노트북
하수
텐데
알파
시드
아시안게임
어르신
걸친
밀리
kt
창당
드레스
공모전
고성
염두
접한
고집
부도
신성
챔피언스
##차이즈
화폐
##대교
##신수
성숙
현대자동차
조약
자책
체류
다해
신한은행
1988
##딩크
태어났
응모
공연장
##케어
파주
##트롤
아일랜드
원조
청렴
억울
발령
##oun
학업
한가
메이크
미술관
##흥민
##보건
지켰
승강
##운트
조인
아픔
日
접종
정전
전수
벨기에
베네
구원
##둘러
##sh
연기자
자부
사운드
얽
재고
터지
##ue
흘리
내게
구청
유적
비대
질의
옛날
발레
굽
섰
낙찰
EC
피안타
1992
##컨대
제임스
태백
##네스
식민
공화국
타결
뮤직비디오
손흥민
던져
##테일
교차
기한
전사
박주영
권역
상의
##순환
만일
##od
수산
##위원장
흑인
##정책
##주얼
##극장
山
동쪽
청정
원금
득표
##승환
대치
마드리드
##연대
안방
정한
시설물
꼬집
한해
때려
정동
중지
수질
잠정
1960
농성
농사
놈
SU
창구
캐스팅
배구
아이스
분량
##바이트
제보
터널
힙
경남도
##몬드
문화체육
상권
히딩크
방역
##TS
주역
하고
낭비
고추
의정부
추신수
금융감독원
다채
범인
간사
##포먼스
어두
악재
릴
여섯
전송
헌재
이원
산정
정몽
일가
노벨
몽골
내세우
트레이드
양자
혈관
##티스트
부러
장려
##도서관
감지
보복
마비
갱
소홀
험
##소연
지지자
흙
안드로
서쪽
센트
고양이
물결
수신
##바닥
배럴
전라
당국자
검정
가톨릭
폰
마스터
특별히
바닷
협업
어찌
##소년
탤
해킹
주방
데이비드
포도
안경
중재
아사
호평
여전
##티아
크로
쿠바
페르
분담
깃
전철
브로
들어와
동행
결단
김일성
분포
종로구
##징금
공영
OS
사각
페이
##소장
기각
보낼
추경
채우
물러나
뜨겁
좌절
##배우
조별
순매도
전신
맨유
동아시아
ky
살짝
##기념
##클럽
〓
실효
키스
대세
매진
바꿨
웬
##우리당
1993
이메일
대조
유료
내걸
그릇
자진
사라졌
유튜브
국감
커다란
경희
##IP
예수
산소
외곽
##딩스
##셔츠
감기
자꾸
합격자
치른
화가
건설사
해줬
sh
열린우리당
07
뜬
롱
최고치
군민
전남도
퓨
봉사자
##시간
버튼
be
##서치
회사채
09
면세점
영리
상한가
대표단
민주노총
생성
##ate
라이벌
생산량
샷
미흡
##소시
전임
퍼포먼스
구리
석방
엔화
구사
탐사
떨어진다
공산당
##세이
탕
출판사
모스크
수원시
숙소
hani
평론가
상세
체감
될까
내년도
##언스
불신
김준
내장
선착순
내려가
수명
##재판
이목
관장
##래곤
꾀
삼성물산
동남아
나뉘
무효
CF
##AS
탤런트
과태
이뤄진다
검출
감수
108
##케스트라
##질랜드
갈라
오늘날
오디션
MOU
연도
##ob
폐기물
유나이
부른다
과태료
스카이
구두
보스턴
모래
모인
다우
회생
##체스터
국악
증가세
죽이
마침내
나쁘
이순
모터
의자
##식품부
##문학
인플
토로
##ae
단점
레저
##35
상용
민정
on
구석
##ld
산책
반해
國
스윙
실명
히로
톰
켜
추출
우크라이나
파크
도와주
축산
확고
이견
##처장
갤러리
##란시스
출력
##화학
##평가
투신
접목
●
##EA
프랜차이즈
관광지
드물
송도
박병
동대문
##수지
복제
광명
부재
##푸드
##텍스
리스트
결산
주름
메이크업
다행히
집중력
LH
부추
파장
파라
상자
뉴질랜드
붙이
접하
##14
이를
소주
##지주
캄
##욕장
셰프
작곡가
냐고
학계
징수
102
박용
의욕
표창
역설
맞대결
비자금
가하
스토
##해양
##our
상해
리조트
오락
신청서
조짐
모의
|
강해
트럭
##메이
멈추
발라
##멘트
자영
유관
##OR
일으켰
인텔
앞당
법조
##르기
도널드
주고
극심
액수
산학
호기
##트라
쾌적
유물
뷰티
탔
고스란히
친화
인천공항
져야
UN
##요타
상사
제압
화보
대여
다가오
좌석
숨졌
컴백
떠올랐
##패드
장인
외환은행
경품
더군
인종
##포토
각별
긴밀
##aid
개그맨
이석
반기
펀
삼성생명
이어진다
표지
##의당
밀양
三
타구
박원순
민중
##가리
바꾼
미용
용의자
외신
세율
##공동
소스
##어넣
총력
뒀
숨지
탐방
정진
태권
명동
바꿀
대검
반환
끌려
낚시
헬스
무단
나눴
기적
발인
성폭행
익산
산불
##are
자택
포지션
##TI
의외
##겨진
날개
관심사
##슬러
경신
170
강진
여주
경제부
통신사
시행령
애국
민속
##ure
표결
먹이
교역
##베르
친절
##유럽
KA
입점
더라고
신혼
호르몬
광산
우수상
서정
기운
##학부
넘겼
##초등학교
고맙
후기
헐
##이상
갈아
중산
##저히
LCD
떨어질
그러자
더구나
삼성화재
##가운
아픈
국고
강렬
탈북
창업자
얇
스러워
조국
##모션
연루
연준
보행
선관위
당사
민간인
##믹스
직면
언론사
최정
韓
탐구
붓
달라지
##성기
호재
오름세
부리
##타임
크루즈
전문의
토끼
파산
1991
돼서
##밴드
OEC
文
진압
행사장
펠
펼칠
주고받
##교통
안드로이드
사면
##버드
KCC
유독
서귀
비극
세일
##경찰청
##레이크
평가전
OECD
립
예요
거품
인건
장동
##시다
들어간다
출처
펼친다
진정한
소원
팽팽
사형
##자원부
##국민
##통위
2019
바른정당
위조
##ant
지붕
중기
해산
본래
우호
때로
he
실감
지경
닛
##두르
맞붙
##나들
##ith
신형
갓
##일으
인쇄
bet
약자
빅데이터
애널리스트
케이스
요양
낡
헛
예컨대
지상파
홍준
감찰
전투기
치안
어떨
배우자
줘야
임대료
선수권
신탁
추측
이노
성매매
비치
퇴출
350
내륙
볼거리
재즈
유혹
이은
ET
##란시스코
보험금
사직
수거
리바
으라
##31
미뤄
연내
포괄
날짜
헝
충북도
몰라
강당
솜
맡기
##이슈
미친
휠
사채
安
서초구
근절
접전
##캐피탈
##단장
명소
입상
일명
버티
스파
더욱이
파운드
금요일
기압
빨라
재학
##수석
욕구
현대건설
덴마크
온갖
##인터
써야
전시장
달랐
타입
탱크
공로
##추어
##네트워크
샀
##소시엄
단단
##학원
드러난
인성
대법관
돋보이
서서
데이트
LI
정관
관계없이
신작
나스
보컬
##업원
축적
##들인
자가
인건비
신생
경유
먹거리
총무
한결
##걸음
##사랑
##ri
계승
상관없이
PS
애플리케이션
사령부
어릴
자세히
성폭력
톡톡
몰래
그렇지만
중복
여름철
곱
리듬
장병
배후
놀라운
환호
##MA
블룸
불러일으
치킨
전교조
##저축
##지노
팔레스타인
육박
머무
사임
트랙
미네
레알
개막전
##ack
양해
기획재정부
##코스
대수
##야마
##협정
이력
##온다
외식
##렉션
기세
모스크바
맨체스터
일체
밀집
접어들
##이도
성남시
김제
김인
한동안
드립니다
바퀴
필자
배운
으려는
경사
학대
동호
##ace
꽂
##구리
대전시
휩싸
인조
소액
외화
나빠
쇼트
계정
도망
##ard
##텐트
휴일
188
오류
요법
##오스
캠핑
##밀리
라인업
112
에피
유승민
##ve
안녕
블라
궤도
햄
SS
까닭
바지
엘지
연이
혼합
우대
실체
자외선
으려고
타이거
신년
화상
객실
미쳤
서장
이득
속속
덤
소모
서서히
긴장감
##그래
싹
사료
사육
홈쇼핑
나타난다
주저
휴양
오사카
자본주의
약한
일기
특이
##경민
급성
BMW
##발전
바쁜
체질
이시
수요자
거액
주축
소유자
노동당
달라졌
척추
스프링
쿨
##도전
홍준표
스태프
이겼
잔치
택지
스틸
한자
盧
날아
상하
##다이
탄소
##루스
백지
법령
장벽
후회
마이너스
정교
는데다
걸릴
합법
##상공
입대
유희
강력히
지원자
결의안
알레
배분
타임스
정시
낙관
제천
호투
가담
손쉽
TF
코레일
세르
터져
##안군
즈
가라
힙합
##투어
##야말로
획기
한두
김혜
보건소
글자
##수기
##시스트
놀랐
전장
×
##병대
가산
그야말로
##타임스
관건
등기
풍성
오랜만
웨이
뚝
국도
##영수
목록
wh
먼지
유격
학생부
넉
##감치
##act
피할
도루
##입니다
조업
아티스트
무너지
활기
차입
한방
부임
여가
특파원
고양시
제로
##라비아
넥슨
약점
과다
##저축은행
##밸리
좌파
ml
##테랑
발판
실사
흥분
시한
시켜야
파고
개조
악기
성취
박차
영구
유죄
히어
전문점
##찌감치
모이
후임
故
테니스
특급
KTX
응용
자립
포스터
부드러운
연고
운동장
침대
파키스탄
##십자
제네
연안
105
중앙포토
치아
미루
겨울철
골자
핫이슈
장미
연초
정우
금강산
정해진
김병현
럭
##GA
시책
해역
수감
국회의장
우울증
오스트리아
##바라
아름답
취향
재킷
생긴다
이끈
##도어
튼튼
샌프
##ood
롯데백화점
알렉
깨달
se
달라진
성균
1950
##어져
발병
공문
마산
챔피언스리그
아닙니다
정화
통영
박경
보증금
문화체육관광부
##센티브
엑스포
파란
중장기
##소드
윗
랜드
다툼
ICT
끊이
털어놓
퀴
출고
상시
서기
로선
김영삼
찬스
##서스
세균
남용
연동
그루
서귀포
시골
에어컨
헨
이효
━
걸그룹
국외
114
타워
구로
오케스트라
치명
김한
전주시
보충
##플레이션
게스트
국민의당
적시타
##브리드
서브
날카
사교육
세입
폭넓
다이아
커뮤니케이션
뱀
##청사
##⁄3
열악
첼시
##대체
보여줄
일지
컨트롤
멜로
가세
수법
오직
거래량
보좌관
장기간
##멘터리
##축제
로켓
키워드
##박스
수호
##놀이
호전
샌프란시스코
젠
나타날
군부
AS
달렸
까다
팔리
김남
지장
예술가
회피
돌아갔
출하
1989
##레나
##인드
##생산
이광
유나이티드
체육관
뻗
시위대
##티스
도지사
##래도
도의회
##포스
김창
버려
서방
버락
면모
##퍼니
카드사
필름
##걸이
배수
약정
참전
스승
연평
인센티브
나노
##페이스
채취
플로리
구경
출구
나눈
마스크
사회주의
폴리
안보리
라서
레이저
##아지
##동강
간주
##프레
수령
참조
폭스
스캔
강서
예매
##광역
주유소
가뭄
##로즈
강정호
##미술관
교재
사자
LPGA
공감대
일본군
승마
기업체
견인
흠
맛있
돌아와
미스터
잠재력
폭락
여왕
주먹
한참
대지
카타르
오리온
컨소시엄
논평
던진
염증
입수
내셔널
해선
막아
지나친
##농협
신입생
땅볼
신원
풀리
고의
교통부
쏠리
체조
계약서
자정
아마추어
불행
배송
봅
성균관
##88
##그러
수장
소식통
슬라이
노란
유래
건네
경부
##리조트
엔트리
##의료
Inter
단호
다지
人
후퇴
##엔터테인먼트
##어버
의제
발송
위력
챔피언십
무한도전
맥락
솔직히
##ain
타인
저질
유방
##어지
우량
스미
커질
CS
PM
##ice
위법
인삼
꾸려
헌신
##타자
과반
블룸버그
불린다
##뉴얼
태세
하남
윤석
모기
x
정례
농어촌
##키아
도대체
비춰
김원
##익수
GB
포상
종업원
가축
거래일
로버트
##교육청
광범
달린
되풀이
지나가
선동
고비
승차
주권
선명
저지른
영유
변형
장터
지성
데리
맞물
수목
경연
운세
온실
리버
송파구
대입
모비스
새마을
##벤션
##15
분배
아무래도
##스포츠
아름다움
에드
되살
원산
입맛
압수수
프로모션
바위
짐작
치렀
뛴
##평군
부합
제주시
다운로드
김윤
본관
西
it
그레이
##베스
민자
윈도우
주파
태양광
서둘러
정의당
하이브리드
이의
총수
일찌감치
승무원
미션
열려
남미
유공
판타
김명
만점
각광
에릭
##디자인
정했
장거리
연소
감당
##시민
아세
박진
웹사이트
신상
인지도
##ud
중공
유진
일일이
##의사
에코
다큐멘터리
살림
중형
플로리다
##재료
위헌
슬픔
양심
수퍼
펄
취미
산다
##바람
이진
##호기
운수
꿀
만루
지났
놓여
계급
합창
티셔츠
##여자
물고기
줄곧
##린다는
하얀
제철
옮겼
최후
베테랑
##ts
페널
한식
디젤
은메달
홍수
삼국
##셀러
##필드
제작사
##케이팅
최희
하도
임의
##가루
차분
생리
구별
클래스
부드
귀여
부풀
계곡
세수
강자
관제
가문
전진
##af
스킨
심상
##스탄
##테이너
룸
궁금증
박지원
전작
##모델링
##베리
Th
따돌
웨딩
누릴
##모토
보궐
문예
콘셉트
여배우
항만
보석
##RA
간격
모험
벌인다
##니지
무늬
나스닥
부드럽
중국어
선대
허락
여학생
외야
수소
떠올리
띈
손꼽
페널티
산지
출품
입소
목동
퇴근
생선
유성
과열
상임위
##TN
DNA
의석
에피소드
한라
으려면
어업
##얀마
이럴
우연히
보건복지
충남도
시집
한옥
##보이
전경련
욕망
##끄럽
##아파트
정계
리우
빛나
An
김구
가죽
##해진
호랑이
잘라
언젠
해결책
##mp
안겨
전도
that
고래
##스타일
발상
다면서
질주
증여
졸업생
위촉
걸림
##삼성
일괄
양극
센서
요미
권장
렌즈
피트
사양
크라
워크숍
##리칸
퇴임
노르웨이
서면
외출
##거나
특보
외무
##스피
con
센터장
괴롭
강북
##삭스
상표
선원
섹스
가까워
칼럼
기울여
찾아보
용병
beta
영세
콜라
입체
소설가
정재
녀
원자재
괴산
기념식
해져
배추
의료진
달콤
두려워
싣
배웠
느낀다
남동
장마
스파이
중진
예쁘
연비
모를
코칭
변함
MM
종가
##내셔널
사모
트리플
닉
만찬
미얀마
쓴다
이치
보스
리바운드
##망이
다녔
Re
재학생
더하
동메달
##ik
이길
월요일
STX
엽
신곡
##ment
일어날
쉴
업적
##23
밀착
##66
석사
에스케이
침입
##은색
전북도
##콜릿
푸틴
껍
룩
연체
사업부
물려
시트
그러니까
애로
대위
##수도
pj
##두환
신비
몰렸
불꽃
##타워
한일
집착
자유무역
##프리카
엄정
전염
좀처럼
내세워
석탄
휩쓸
발길
격리
융자
##그라
태극기
시일
다각
날리
아르바이트
ᄀ
통계청
회고
농담
사우디
의대
파생
요미우리
멤버들
유보
이완
펑
##지오
단편
백제
프로듀서
정년
공예
벨트
교감
모른
강구
인제
판교
박희
직선
해운대
걸림돌
유병
터뜨렸
펼친
산악
매수세
요령
난방
崔
##현대
모시
##전당
##코드
##PA
더라고요
해변
우회
등재
리모델링
##세자
다할
빌리
회복세
1300
항소심
멍
##한가
폭염
중심지
어떨까
후유
걸맞
평일
드디어
##내기
총기
압축
신정
##교회
##전기
휴게
이회
정형
나흘
랜
州
김미
조상
일수록
이송
박태환
##56
##치기
유플러스
오세
크레
금고
##내리
##베이터
김우
※
카지노
一
막내
이혜
상습
통로
공안
방문객
남아공
충당
언젠가
교부
KO
##68
##마토
다이아몬드
인데요
실린
##자산
##과이
메디
왕국
쌍용
발명
두려움
##에르
##틀랜드
퇴장
이근
잠깐
분비
창설
##도르
##철도
연재
후반기
청계
미스
갇
##노미
콘텐트
정규리그
187
핀란드
안정환
태권도
존슨
스펙
추위
부위원장
대접
실책
CG
김유
1800
환급
광범위
코스피지수
신종
룰
저조
루이스
마늘
임진
결선
돌아보
유포
화두
매립
계란
시흥
삼성그룹
지법
프리미어리그
전락
테이프
음식물
건국
목욕
betanews
이어져
풋
대리점
종일
낮춰
백인
서울중앙지검
한마
##OP
오승환
##느리
집필
신조
수산물
쪼
장교
##광역시
성립
암살
클라우드
농축
스케줄
흰색
기피
##들였
잔디
마찰
박명
파동
와중
향기
쿠폰
책임감
어시스트
내세운
꼼꼼히
한양대
BBC
##렌지
사범
클릭
이색
더했
##고리
예년
만료
칠레
순회
지문
DM
탄압
거제
ES
##폴리오
고쳐
im
##센트
수료
선별
각계
간호사
휘발
승격
색다른
##11
부담금
중년
시드니
헌법재판
부른
광양
음악회
뜯
였으나
본지
포드
유격수
치즈
다스
##홀딩스
기수
al
음모
순찰
치료제
##분기
핑크
##해운
위하
소아
협의체
익명
계약금
택배
운용사
정산
라이트
##브라
엮
수성
UE
선보여
보람
소신
산출
장례식
공존
돌아섰
##하면
승강장
개발자
▷
봉투
어리
##oh
##마르
못지않
든든
노화
늘렸
울릉
##젤레스
더군요
옐
도출
푸드
막상
##제철
삼각
보합
영혼
##ere
똑같이
유선
소방서
샐
정경
상봉
##제일
회화
어긋
개막식
기차
증액
법제
원로
전셋
그러한
비로
##이치
누나
고심
##부인
주민등록
받아들일
원형
##세스
남짓
##ast
1986
김도
정준
줄였
하차
##은희
초콜릿
흉기
분해
##노트
워터
##장애
##코올
주춤
케이티
악성
입양
걸어
##본부장
자이언
경제학
경마
수련
편견
발표회
아쉬운
야드
하버드
컷
입문
조례안
배울
직권
기동
##신저
터뜨리
동지
얹
아리랑
취할
낙동강
진동
형상
무거운
이동국
실물
재선
MSI
깨닫
게이트
가루
교양
sk
우승자
후계
하와이
왼손
시진
양육
국무부
점프
싫어
산업은행
온천
##ge
최현
한숨
인선
진보당
태블릿
##제품
홍명
호기심
띈다
기숙사
사명
##pe
독려
법칙
##숭이
협력사
뒤지
지형
아이패드
서재
노릇
안개
초보
피자
체코
1600
도우
도주
이장
관련자
올레
전두환
내신
마일
국군
연중
픽
남북한
보물
##Hz
아키
정책위
주어진다
스타디움
향수
##ib
##제약
리비아
납입
반군
단정
챙긴
예의
##퍼드
돌풍
억지
새끼
공청
혈압
예쁜
##브스
단절
분단
한복
참배
협력업체
##곡동
세인트
正
아메리칸
권혁
##랍니다
들리
##영화
삼척
##man
IOC
경과
송금
##스트리트
AM
##탄소
나주
피우
소극
차선
보령
추후
##중앙회
가라앉
보입니다
이화여대
더민주
한미
도미
끝날
월간
최진
제조사
왕복
구실
##테네
넘어선
반격
아시아나
관악
조영
호흡기
서점
왕자
낙폭
효력
내야
녹지
이룰
°
반지
##일러
de
로스앤
사우디아
뒤진
바로잡
베이비
스리
##교사
가만
취해
with
서해안
로고
함정
이용객
쉐
##라스틱
교보
3500
##사리
##타인
어두운
찾아내
##85
기호
##82
##벨트
말리
##스토어
비닐
오렌지
언론인
인스타
##44
##데다
hj
임창
긴축
##ES
글씨
셔서
파울
용인시
날렸
컬렉션
온다
아메리카
##트랙
인문학
##에프
외상
울리
김석
복권
##IST
무서운
환수
일행
포트폴리오
찬반
##구니
##iz
평균자
궁극
마이크로소프트
헤지
##기금
##평화
벌일
한국당
후유증
책상
기하
사우디아라비아
선장
청취
전시관
##창조
방출
속한
민사
##스틴
주니어
UEFA
대항
롯데마트
품종
규탄
미생
360
쉼
임종
해태
진통
정문
봉쇄
넘긴
영문
SA
동문
##오픈
농업인
과천
엔지니어
##27
수급자
##여고
심포
드론
유재석
간절
##워했
장남
사설
자부심
대국
이세
모양새
법인세
##자치
침투
후진
##폴리
동상
드라이브
흩
학점
경희대
##콘서트
이별
고창
정조
절도
미주
손자
##오롱
##방울
친분
##특별
커버
주둔
##바이오
재임
운동가
서비스업
엑스
컨테이너
순조
소나무
사외
승자
학사
때리
중학생
적격
스피커
노원
##24
카라
관리자
주상
애리
##벤처
엄중
승계
근접
사라진
공수
단연
일화
##ian
##55
섬세
발족
리서치
잠수함
보건복지부
##무소
로스앤젤레스
은가
장중
식민지
##미터
제동
##ps
어쨌
통역
바이올
연정
종사
학살
재차
SC
과실
주머니
낯선
비유
홈플러스
더이상
방북
차종
##니스탄
락
##고등학교
##다드
마법
가파
고액
기둥
배임
子
수익금
잔류
인스타그램
증설
##ial
결실
소망
볶
퍼지
김은
교도소
##워서
##RB
고혈
몰입
ECB
AF
발부
모형
백두
전념
이코
파도
사이즈
훌쩍
신약
열광
잡히
대본
숙제
요약
효능
항해
벤츠
원한다
##65
블로
성추
##IT
Al
##DB
##net
실종자
신도
##워야
상상력
新
야기
대략
특사
성금
##스틱
자위
착한
##노동당
순방
파이낸
사표
웅진
##orea
##안보
서울역
납득
고치
##페이
감옥
##양군
당뇨병
챙겼
막강
특구
플랜트
103
농지
에버
네오
다름없
망명
도매
이호
퀸
거머
양키스
##러드
이야말로
을까요
토토
남산
JP
모순
경쟁자
조립
옮김
jh
##조정
##네스코
극히
##식간
용서
국영
돌렸
##데타
밀접
##악단
유쾌
각서
꿰
으리
125
려다
내정자
일본어
더위
바이어
시진핑
침략
an
수영장
##현동
기득
첩
신영
작사
공지
브루
치과
다는데
엘리트
줄줄
보은
이만
##태우
비로소
공통점
잃어버
변해
카르
고종
할부
루이
한시
자재
이재훈
SD
뮌
원문
잭슨
김세
무지
야마
승률
과징금
염려
아가
##72
이회창
을수록
본점
헤이
중소형
실리콘
서태
꽉
지방세
창문
크리
정현
끌어올리
미달
미쓰
롯데그룹
고립
공립
111
##테르
설탕
##밀히
##aper
남다른
싱크
약해
현수
mg
ETF
천천
찔
중앙대
##경기장
신진
민선
조경
연쇄
오만
포부
희귀
찾아오
성원
##블리
착각
배신
상회
해봤
앤드
제역
알바
피터
##어내
저널
헝가리
##의전당
daero
연수원
저서
환승
부유
신민
vs
늘릴
##RI
주된
코오롱
캐주얼
단가
AT
입술
담장
애리조
기다려
##활약
##43
오키
중증
욕설
뺀
프로세서
피겨
##꿈치
반짝
##레이터
##oon
운반
후손
##보기
양념
기장
450
그만두
유네스코
박인
115
##플렉스
##라이언
웨스트
군데
##ha
순식간
자민련
주어지
##바겐
##조리
보류
##ear
##하마
출루
증폭
서강
도마
규격
맹활약
##그리
이모
DS
##전트
플라이
자영업자
모토
조형
공청회
1985
안무
일곱
필립
려던
인출
배기
항구
머니원
##나미
내전
후지
##비시
손잡
##일드
##노스
자치구
상황실
각지
거울
알코올
쿠데타
스캔들
코엑스
감싸
밝힐
임하
지킬
박병호
윤상
상거래
엘리베이터
삼성동
더러
##벌이
##클리
적성
성동
영수
##qu
문체
넉넉
##uc
국왕
로이터
차라리
le
전승
치우
도시락
1984
##나와
저가
##세서리
둘러보
치밀
사학
플라스틱
가늠
유공자
전복
##오르
절망
출연자
##에셋
스타트업
아마도
앞섰
실버
##드름
드릴
자질
##나타
공소
##주교
as
신차
올라오
차명
조용히
조종사
##저씨
올라섰
원격
취한
터진
京
영주
高
##네마
삐
사막
축사
해리
시크
최민
109
등극
알선
재편
##시트
군단
##으로
전성기
권익
간첩
##26
사령탑
산업통상
DV
부끄러
넓히
이한
오른다
솟
##79
교직원
##면적
법관
DB
여행사
기미
아닌지
셔츠
아저씨
##문화재단
콜롬
부상자
노예
시연
필지
방통위
발음
십시오
빅뱅
##out
방송국
개원
104
에르
##퀘어
##age
WBC
세로
귀가
다투
##암동
재밌
찾아볼
최성
NBA
우즈베
현대백화점
드러낸
공룡
폭격
조문
수직
장세
각기
신흥국
가드
애틀
유신
추궁
엉뚱
##루엔
오지
1982
학급
부하
##중국
##게이
우리은행
쌓여
알렉산
잇따르
나이트
뱃
##웍스
적잖
맞췄
새삼
썩
강등
디스크
SUV
적대
웃돌
김동현
##19
적혀
##우주
##테이션
천안시
월스트리트
뒤따
대포
계파
농약
##리케
김현수
담합
기득권
아마존
엉덩이
손목
명확히
요르
고고
사옥
김신
목재
YG
백성
##76
인질
원심
좋아한다
르노
무덤
동방
220
세븐
구형
장원
##맞이
내실
화질
교훈
불어넣
real
보름
1900
정읍
만회
열쇠
치른다
나뉜
분자
코믹
금년
대명
살피
천천히
김보
내비쳤
사생활
MP
주시
그림자
##AE
고층
임박
##드레
일으켜
필라
숨기
##과학부
창원시
##HD
AR
입성
암호
분수
이리
지식인
황사
원서
냉동
여력
기르
메리
AC
##12
우아
컨벤션
맡겨
뭉쳐
방송인
판타지
바비
영재
공습
강국
괴물
어쩌면
##프라이
고혈압
다카
이규
박탈
대림
오찬
회상
하동
어색
뮌헨
BB
배급
일축
품격
개량
대의원
##살이
보태
구급
이효리
마포구
##75
청담
성당
##LL
사거리
역동
그대
행성
열람
거실
주어진
일어
##다임
신청자
하여금
##혜진
##네트
모듈
간섭
꼽혔
나들이
화산
px
##포럼
은폐
컨퍼런스
라스
주파수
지루
위임
증후군
현명
##오리
자궁
침수
지휘자
1100
기리
##17
첨가
화력
삼성증권
##우트
표절
王
전차
량
금융위
##무게
공채
강전
1400
로열
다시피
재건
##천구
단골
유한
고작
##end
가급
##금속
bp
찢
이국
트레이닝
니콜
밀어붙
NY
##ph
바쁘
##클래
일련
오디오
##바다
삽입
결함
프레임
불렸
황당
넓혀
240
##ff
방망이
슬로건
후문
##77
##ner
처한
아이콘
밀도
##카운트
문경
서대문
자책점
신념
##디스크
##상선
마구
행장
##팩트
조망
어라
##티지
잣
경기력
후원금
선점
올라왔
귀족
소독
휘발유
도저히
효성
견디
아모
풀려
영감
모친
중남
일으킬
연전
하나하나
칼로리
국수
고구려
스노
카운
껍질
전례
106
아테네
달래
최경환
클러
연구자
매직
생활비
미모
##회의소
외교관
파손
##이나
##정동
거둬
무섭
기부금
시력
포진
영화관
##18
잡혀
##ass
분과
##수수
쑥
서적
약하
내밀
문항
국기
##퍼트
하나은행
##공학과
내면
형평
그렸
나눌
CO
가르쳐
##선거
##산업단지
재래
한신
미미
카리스
열흘
##슬림
대단히
영등포
조속히
견줘
CB
지갑
가해자
했으나
스티브
##축구협회
##프스
마술
표본
##경영
몸무게
패밀리
연면적
김문
트랜
##kw
드문
ks
##29
ELS
##전선
피츠
양파
토마토
신앙
##ID
부를
그러니
부평
켄
바뀔
노스
##행정
##농업
海
부통령
노숙
익히
##동원
해양수산
##LB
Un
道
자유무역협정
야구장
스티븐
하청
거둘
소품
아프가
왕조
액세서리
##마리
##루미
이청
##전문
일부러
절정
취했
중앙은행
정자
1945
과외
해냈
마쓰
이서
##드라
엔터
내려오
번영
옹호
친정
해본
닥터
소치
가급적
강민
걸까
열매
정장
천정
재기
경정
平
##운다
인자
차려
공신
kW
별개
123
아프가니스탄
카리스마
입금
업자
급감
##걸리
내세웠
pro
^
##로라
장외
##루엔자
건설업체
다국
몬스터
함량
##ug
회로
마리아
평년
피곤
소용
유수
장래
인플레이션
동경
출현
성균관대
두께
##챌린
프레스
들여다보
스폰
올라온
정보통신
수중
SW
매번
최태
유기농
특례
웹툰
유통업체
##베트
힐러리
건데
톡톡히
##로우
##릿수
뜨거
한상
##45
속초
폭풍
동해안
##제이
레바
악용
인격
시국
반납
##목적
##16
부수
##무실
아웃도어
신당
성별
ID
웬만
미터
켈
공보
하나금융
참여자
즉석
캄보
자선
##매김
존스
퍼져
##다지
토종
페어
마신
홍대
표방
##단체
##날레
반란
031
##동생
패러다임
정대
EBS
퀴즈
임차
이코노미
닐
모리
요르단
야심
가결
##캠퍼스
합산
방과
대역
자리매김
피칭
올스타전
푹
경감
상륙
유학생
빼돌
##센스
당정
옮긴
기어
도피
킨
LIG
사죄
동월
최장
지리산
##학규
로맨스
뛸
푸르
스코틀랜드
이희
CA
돌보
조카
수요일
한파
겹쳐
뽐냈
회의장
실세
이연
##orld
##지엄
선제골
쌍둥이
##58
##가스
자민당
NA
대성
개표
photo
기뻐
AFC
PB
미혼
교복
파급
자본금
낙하
##개인
이천수
세액
##로움
캄보디아
##도미
강수량
정답
늙
원숭이
##의학
원동
##제리
유망주
주의보
그래야
모니터링
귀여운
중위
##벅스
충성
대우증권
소동
PGA
탈북자
물러났
반려
날려
심경
기습
##누리
장윤
내다보
줄줄이
양현
불쾌
1983
2030
설사
##선수권대회
마틴
걸린다
목요일
at
할당
최재
혼인
서남
정립
미래에셋
포로
광저우
##피니
거꾸
joong
##93
원피스
태우
찜
gog
감탄
##시픽
들어섰
무안
옥상
일조
트래
달라질
약품
장시간
악마
페루
##글로
전향
##자유
엑소
확진
한국거래소
##문화회관
복면
턴
압구
기업가
무너졌
콜롬비아
##워치
##지우
단기간
상장사
동탄
대권
틀림
누리집
##라노
부결
##태평양
##ire
추방
고아
연주자
식구
봉사단
우즈베키스탄
토너
보답
차이나
한다며
장난감
출퇴
일러
##크리트
스코어
##TC
1979
##36
은평
참으로
안주
말기
버릴
기원전
나이지
경합
공론
##애틀
##다르
교대
타이밍
레바논
##ies
근원
맵
보직
원산지
표적
한국전쟁
천장
산타
쌍용차
국책
구해
신예
##화물
동명
주지사
애인
타이틀곡
브로드
##부상
나이지리아
##61
정점
리처
다가가
전한다
담화
아바
FRB
부의장
##paper
홍명보
카카오톡
순차
오로지
외형
天
그러다
아이유
도장
늑
##리지
비틀
영예
행렬
방면
Pro
부속
이점
반문
항암
##삼진
##자재
소멸
##겨운
택했
강성
빠질
스쿨
마사지
트로피
봅니다
거꾸로
단서
찾아와
##미르
포즈
되돌아
##국제공항
묘지
사무국
뽀
약국
인플루엔자
##아산
멸종
염색
담겼
사이클
폼
부담감
느냐고
아토
가져가
대책위
분별
나간다
일간지
하도급
##오카
하드웨어
영농
박대로
어지
##모어
뮤지션
당진
냉각
##합니다
실려
##금자리
요시
결별
동성애
겹치
FO
탐지
남원
128
파기
주무
이통
그랑
히어로즈
복사
적힌
떠오른
스러웠
막바지
사무국장
여드름
일대비
##리자
성명서
미사
완주
헤딩
패했
당첨자
최희섭
추이
이철
면역력
으리라
나카
해치
둬
길거리
양주
##즈니
원더
##63
은하
퀄
해병대
무언
파병
요코
터졌
직결
오토바이
리베
놓인
시애틀
대동
이승만
지켜야
시야
##HA
하경민
포천
hy
역전승
##상공회의소
##체국
도요타
LS
세탁기
##제국
정직
가로막
나비
인양
특권
따위
##NC
강점기
심야
메신저
시공사
##보안
Sh
불거진
매트
유흥
드라이버
도래
##ork
##HO
맞선
가리키
길러
플루
우상
법학
극찬
기다렸
라니
친선
상설
전광
무겁
야스
냉정
유난
헌법재판소
충무
어차
변했
메이커
표했
한눈
중남미
키웠
하계
곤충
향했
뽐내
##엘라
탐색
1981
다뤄
폭등
알레르기
##희정
달걀
보고회
##사태
보드
남경
새겨
##건강
초상
realpaper
몰두
조직위
착오
권영
프란
오른발
##박람회
이강
텃
합치
다닌
##포터
외과
현대그룹
금방
거듭나
건지
상고
질타
미지수
들어설
달라진다
##모니
무궁
장갑
바랍니다
한껏
이관
##토록
찾아온
##ome
갯
그친
사법부
거칠
내지
이선
일문
무형
##법원
공정거래
##ulne
안기
알뜰
##진구
joongang
철폐
##게임즈
유류
매뉴얼
템
오너
인내
사소
유머
보금자리
간직
복장
풍속
해양부
딸기
##말라
미녀
카를
##경제부
엔씨
횡단
거쳤
내보내
돌아갈
나치
##33
세리
골문
러닝
손학규
##마이
어차피
잔액
헨리
웰빙
##시즌
UAE
인터내셔널
가꾸
당직자
베스트셀러
##조직
육체
활짝
호날
##여겨
이면
오차
인수위
당할
충고
뽑혔
서열
휘말
##tphoto
yulne
자유주의
yulnetphoto
모처럼
과자
거쳐야
홍삼
##니즘
재테크
##de
할수록
##르드
넘쳐
단다
정류
올린다
자이언츠
230
그러므로
트윈
##보증
박기
대승
양평
이변
토양
현수막
##서부
##영향
##환자
극본
토니
135
상점
도둑
모였
成
뱅크
친근
눈여겨
동창
황우
민주노동당
훈장
용이
##네이
전속
##수리
해남
골퍼
교내
지름
강신
초록
법규
신나
분권
늘어
캐피탈
격렬
서술
교향
성북
대담
##트릭
친척
수첩
드래프트
부응
눌러
μ
##av
치러진
정동영
##28
하한가
표출
리처드
입주자
추운
은지
가져오
샴
침착
콜로
영월
회사원
거침
계획서
##립대
학회
서태지
발기
NS
애틀랜
이뤄져야
탈삼진
연산
바짝
##스크림
##러블
경쟁사
정주
새우
아이언
냉전
##타리
순익
다국적
##베스트
빠져나가
##71
지우
##대강
독주
각도
상류
##테러
##기계
##ide
막걸리
재판관
포스
조장
절제
아세안
공무
산재
십자
아파
면치
어쨌든
##92
##ree
대두
산업통상자원부
4500
커브
탈모
한국전력
정복
##집니다
서두르
북극
쓰인다
교포
혀
##기록
모발
회식
가야
언덕
##99
공표
가만히
끼치
cc
젤
네트
정윤
올려놓
성추행
성질
출연진
##여성
분주
보너스
건가
여우
##사무소
개체
리포트
미래창조
희망자
마력
패스트
출원
설득력
오산
결연
##만금
##예요
##무라
다중
선체
느껴진다
해양수산부
##러브
##64
악수
1700
떠날
솜씨
##32
합당
한국방송
달러화
취업자
신촌
쌓이
마음껏
초월
급속히
##란트
귀농
피난
발걸음
기업은행
USB
여객선
취임식
아이스크림
##중학교
엎
VIP
JY
방제
##62
감행
##ma
늘어난다
나뉜다
호감
위하여
##본부
前
ex
의료비
##자부
도리
식약
디아
물음
##자이
외관
종결
편한
치료법
활발히
##95
데일리
뷔
##체육회
끔
##41
##BI
##gy
던가
챌린
피츠버그
로스쿨
타깃
낭만
##스토리
DVD
가미
역세
전년도
재경
##하키
사이드
##ely
PE
##스톤
꼬박
##나물
고졸
찾아왔
그다지
살균
재일
붙였
이범
그늘
스폰서
이거
##게이트
깔려
역학
한성
방화
날카로운
인방
##커녕
당대
향토
호우
로맨틱
수의
지체
##주택
##게이션
박진영
AFP
##48
방사능
스트라이크
안타까운
##ind
근데
곤두
무슬림
신지
##베이션
농단
##13
나마
##42
벗어난
그분
다닐
다크
##추진
붙잡혔
동국대
출퇴근
수반
모자라
##같이
악영향
스타일링
we
여행객
잡힌
##옵니다
##스톱
필드
왕성
##46
##서울병원
누워
##준호
우라
왕실
환매
독감
오이
이민자
이산화
##쿠르
이뤄져
내한
두뇌
기재부
반사
對
만주
촉발
張
비준
콘크리트
가혹
롯데월드
장타
헤지펀드
곡선
장담
시뮬
일당
법사
햇볕
호날두
거예요
팔렸
며느리
##축산
새만금
머릿
김홍
모욕
##빨리
가나
코칭스
안면
결과물
##미칼
승소
양질
##저기
함양
##중근
이마
##per
유난히
이순신
##어붙
가칭
담임
간장
떨어뜨
인데다
해수욕장
구동
모멘
양재
kim
대리인
역점
##49
He
구이
소명
허물
개개인
건국대
##구역
모호
아닌데
어플
미셸
정보원
라기
직위
사제
꽁
예민
her
김호
##델피아
특색
지옥
간식
주심
지친
IPO
자생
제구
박현
##증후군
##CI
멀티미디어
320
브레이크
돌연
포크
##벅지
한국사
##시스템
콧
부쩍
Ar
##글라스
##67
주입
피크
매니지
흘렸
교육비
HS
옴
감격
총격
##메리카
##ational
힘쓰
어학
왼발
밀렸
김관
망설
KG
운영비
종영
환산
본회
기획사
##바꿈
전대
론칭
가져야
##우병
작물
드래곤
용납
야채
107
훔친
##과학원
htm
제작자
모멘텀
문체부
필라델피아
응하
뺏
빅토
##일답
댐
기점
열대
주교
##타이어
우연
범죄자
꿇
아미
도왔
일문일답
리스
발산
말라
그쳐
##91
연구진
음란
유정
##마다
빈소
입당
포털사이트
보리
거북
파이낸셜
블라디
의해서
사나이
도자기
저해
이번주
코칭스태프
잇달
출혈
브로커
##디언
##니치
트레
FT
마이너
NHN
마오
아이디
여동생
독창
MD
김태균
스카우트
릿
145
매니지먼트
워크아웃
천주교
여기저기
조계
전분기
공해
파행
극도
정정
체내
심층
리콜
서초동
##고래
##mer
쫓겨
스킬
전입
시멘트
교과부
was
적절히
만난다
##장애인
전과
탁구
De
혼잡
미화
##승부
##렌스
거센
공짜
mk
강타
도봉
공적
엇갈리
뿜
반입
토트
##rom
놀랍
김광현
울릉도
다듬
통지
환원
제대
지은이
건설업
1930
중등
탈바꿈
趙
##순이익
팔꿈치
##파리
기일
다발
클레
월화
##스프
유서
심포지엄
월남
다자
185
쓰여
남매
선조
점거
생전
꾸미
본명
케이크
##카르
심혈
유대인
라이언
오키나와
라틴
북동
창간
##co
##시피
거취
##세요
외쳤
소셜네트워크
브래
끔찍
여고
##교부
두통
공휴
구할
스커
투자증권
마인드
##줌마
미팅
뉴욕타임스
게이머
경인
지켜본
##아시안
트라
##블로
레오
원만
上
착륙
집합
學
마포
평면
비정
마녀
사사
가져다
제작비
경찰청장
접할
윤종
##석유
##37
##ence
보상금
불화
우루
신학
##통화
스미스
딱딱
공관
네팔
김두
프랑크
루머
##브이
기탁
감세
장정
백종
재심
쌓인
슈퍼스타
후세
이양
##old
머물러
明
시조
기종
210
새정치연합
양대
절벽
##카락
카자
포용
江
코어
애틀랜타
베네수
WS
김효
붙인
벚
머리카락
저질렀
원수
식재료
##LED
소각
동반자
##io
수출입
건축가
국토교통
올라갔
노골
세계대전
##기상
입자
거창
연탄
음력
음향
뱅
이정현
데스크
규직
가져올
내려놓
##틱스
스토어
##나드
##원지
유무
바보
퀘
##ect
교제
의외로
문성
비관
돌아서
연하
차등
사업가
삼성서울병원
신자
허벅지
해커
사업단
가마
어드
아시아나항공
날아가
현대모
샤워
서산
숨겨
스포
몰린
서한
서울중앙지법
쥬
어둠
천명
book
대우건설
##외과
원동력
田
아크
제자리
##킨다
구조물
원점
찰스
국유
수월
하하
##란스
비법
jin
##악산
거시
경전
##34
아홉
평상
받아들였
기밀
재수
전매
업주
탈피
울진
화요일
호가
굶
##ube
지면
##돌이
혐오
CGV
또래
##포스트
티저
##ile
계통
다치
lov
빈번
대타
패러디
상반
全
흔한
이영표
9900
자구
의약
쐐
성주
김천
키울
집행부
의왕
이건희
실상
##진당
공매
##재현
家
##광장
구직자
##코프
##세계
국한
교토
성화
소진
가령
1978
신속히
본능
1973
진천
280
지질
리버풀
##범죄
쐐기
클로
캘리포니아주
모은다
농수
상기
배틀
차두리
##턴트
강원랜드
속옷
자란
머무르
155
공휴일
지르
보훈
##84
피디
서독
약관
마루
빌라
방사선
화성시
닷
##거진
건넸
장편
##저널
어음
부총
##ans
깊숙
270
샌디
내려갔
후계자
##투리
아모레
안도
이병헌
서인
다쳤
용수
1920
##jun
BO
said
공사비
연임
세입자
급변
형주
여객기
슬라이더
휴업
##웨이트
##컴퍼니
중원
동산
##문화예술
MW
탈세
##쿠버
폐업
채팅
의구
##기야
BS
밑돌
절대로
강영
평창동
##증시
##대병원
현대모비스
##조사
아까
이슈팀
Cl
comp
강변
##덱스
아쿠
고난
마르크
이코노미스트
이룬다
존재감
무더위
베팅
복식
여정
##팡이
정몽준
##리얼
세단
Te
압류
속한다
해발
아프간
끌어내
낮췄
반기문
##오일
##패스
직영
추행
완도
뇌졸
##39
1974
하트
##69
갱신
견학
등락
미야
##38
비박
무언가
##버거
영원히
##마블
손길
피아니스트
홍익
휴스턴
두바이
용산구
광대
막히
광물
―
다졌
중상
유영
발동
##레일리아
겸손
기승
##47
요지
만끽
결집
선거인
외래
##ory
중대형
변론
과거사
1975
문인
속출
1001
됐었
1972
시판
우월
한남
NE
요한
움직일
경상북도
元
유익
승패
수교
펼쳐졌
저축은행
진한
##레스테
토너먼트
##워즈
윌리엄스
애도
수배
강서구
본토
스무
엄청나
람
겐
샌드
그라
無
고충
##카이
둘레
##73
##맥스
##대사
텃밭
보습
##89
베네수엘라
최영
처형
우산
대법원장
내구
피지
송구
가져왔
사용량
##금액
이문
##베이스
그칠
악취
성찰
##틸리케
##블랜드
##ays
의향
색소
진작
호황
##ess
프랭
군요
•
Tr
선호도
##도미사일
숱
##코어
배양
##로워
쟁이
화석
랄
청량
윤곽
장신
##부진
메카
엔씨소프트
현대인
330
급하
매개
패권
만한
필터
철새
판도
##IN
잡혔
##cc
경성
##진다는
금산
피력
생산자
장애물
##텔레콤
IBM
동요
도우미
민관
공격력
아드
떴
풍력
##볼라
리터
아우르
##슬링
En
미생물
이재용
귀환
환불
IBK
바그
곡물
잔여
폭우
林
윤성
잔뜩
##모직
미르
##ach
관련주
기술자
고영
광우병
단체전
천하
전반기
추대
귀신
무능
무작
어렸
텔
눈부
개인전
카자흐
쿠웨이트
비단
##드래곤
로즈
##까요
보살
시군
우스
국토교통부
변명
##포인트
##의료원
훈훈
##아르
어느새
방송통신
안착
##기능
검은색
강대
누렸
손수
이때
##플라
사관
미래부
대덕
FOMC
김소
늦추
물의
오클
뿌려
벌어질
不
영종
감량
##테스트
뉴타운
함대
편집자
##ok
대관
인민공화국
##day
꼴찌
사극
맛볼
지구촌
책점
신주
슈틸리케
동굴
사귀
옥션
이걸
##릅니다
조직력
키즈
식별
펜스
완성도
된장
##고루
간신
유니버
해적
옥수수
박세리
상수도
책자
잃어버린
항쟁
##파이어
초연
살아온
##하라
아토피
브라이언
달할
절박
##거렸
##엔날레
개회
##78
##yc
강지
##세우
불상
물체
포켓
들어선다
자비
교육과학기술
명명
독거
sds
개혁안
재외
종양
가명
에이즈
팜
펼쳐진
세심
진해
대하여
김수현
에디
이룩
무더기
##pp
kang
##나리
##니오
박승
기념관
숙명
##81
브레
본연
연령대
남측
벡
소변
##레스테롤
돌아다니
살린
관문
해줘
국물
제왕
기류
북방
자연스레
침공
스러움
##LA
키보드
만전
대마
맏
쉼터
올라갈
최용
춘천시
증명서
센트럴
화답
잡스
##개발원
are
산업부
처녀
원룸
징후
방대
SP
權
박은
참관
RPG
군청
주총
##94
경색
신병
##국인
수시로
연행
##우치
답사
시황
비방
옥천
군포
##oul
원년
추상
##oT
몰락
PA
튜
횡성
천문
일컫
오스트레일리아
문턱
클리블랜드
에이전트
인맥
구인
막혀
지극
정차
혼다
동거
발라드
상단
##인권
왜냐
대내
다가왔
##ryu
##98
기력
탈환
도정
실업자
으로선
포화
오른손
그랑프리
동조
천사
갈비
공정거래위원회
아줌마
미인
의구심
활동가
군주
1976
##아시안게임
EX
효소
##에미
풍자
되새
##애나
발렌
구자
처우
##ound
##구치
렉
중추
청계천
小
MTN
토크쇼
투자가
##원자
벙
동전
묵묵
소방관
WTO
탐험
성경
섞인
##해서
경질
시어
황정
준다는
##CO
민병
골고루
영유아
##96
##카트
수납
제일모직
##가와
마진
메르켈
여느
맥도
##서쪽
가치관
연합군
##스코리아
잣대
民
어이
웃도
친한
매사
비해서
##기현
##링크
노년
주범
박한
칼슘
외야수
##렉시트
충주시
직종
이청용
##74
마우스
후쿠시마
##징어
양동
극동
##수사
##태영
관철
영수증
방콕
##창현
750
내림
한민
선취
십니까
씌
강호동
고질
앞세운
던전
미끄러
##포드
습득
염원
설레
##베리아
우파
##루미늄
씨름
##치료
거장
기생
똑똑
반포
치를
토트넘
##심의
파헤
키운
공명
녹취
선비
판로
당당히
스릴
자르
김학
적법
항로
무사히
##라이프
햇살
헌정
##도록
짜릿
사주
임시회
으러
흡입
오리온스
추기
건넨
넷째
이와
단풍
전병
비료
증강
치중
부검
갖가지
롬
##ORPG
진료비
귀띔
요트
##릴라
꾀하
##물가
##수정
무명
우체국
사위
억압
열망
놀이터
두꺼
##ime
인권위
##저리
박민
힌
##운동장
미래창조과학부
相
다했
##ord
##케인
소관
어떤가
과감히
쇼트트랙
KTF
##주니어
실형
권오
드럼
사우스
세르비아
햇빛
##처리
적금
들여다
멈춰
##린이
르네
타고
경복
##작물
550
훗
IA
실은
##스텔
입장료
##유통
바꿔야
##oy
깃발
예술인
##차기
약사
##부모
능동
##부지
강했
직속
대출금
##ock
구민
대북
힐링캠프
콜레스테롤
손질
女
국보
담뱃
##ary
호세
최경주
##주자
그려졌
랠
비비
써서
함수
펌
##놀로지
##게더
강아지
볼륨
모던
단양
안티
실수요
올림
조그
겸비
발랄
시종
260
TP
전단
고교생
안겼
레이싱
커진
에프
만지
찬사
##체어
더한
반경
시동
원소
##그린
해봐야
강재
실속
##ical
명사
프린터
서강대
꺼리
시뮬레이션
##리미
관리비
##97
##무진
낙선
다산
모건
바나
급기야
강인
원안
팝스타
스트라이커
파인
북한군
유방암
만장
이형
윤정
휴게소
투표소
몰라도
야후
불허
즈음
모른다는
PF
동호회
ᄋ
그레
##찰청
금융사
응급실
지각
명지
절친
##87
림
##ber
카메
돌이
##ult
물놀이
장모
환기
세션
속내
질투
김지훈
산간
입주민
다정
찮
개미
사용료
잡아내
365
##전드
충실히
중수
일쑤
IoT
##보합
##ick
특기
##준혁
진행자
여럿
딛
중세
##모리
##생제
벚꽃
씨앗
거머쥐
행정관
넌
넷마블
양구
##메이드
양사
투여
좁혀
##음악
남경필
노조원
차가운
반갑
싫어하
데뷔전
식탁
軍
가위
영덕
장부
고구마
청중
미수
축산물
##무지
코디
지역민
We
##83
이긴
제법
다목적
풍토
슬픈
신경전
멘토링
한솔
요새
극우
NG
버린다
영등포구
젓
불거지
##레이트
##노이
##소타
시립
링크
조윤
부두
천국
대한축구협회
송영
처해
초안
여덟
입소문
현대캐피탈
Wh
짠
결핵
배드
히트곡
전량
흘러나
주선
간소
주간지
허상
플래시
카트
차체
간단히
닌
캐시
짜증
명실
중량
Le
알루미늄
##86
토론토
맞섰
번갈
벽화
섭외
지평
체전
시사회
좋아했
주지
조선인
차관보
두터
Be
라이온
둥지
기고
정류장
썬
本
국익
##부로
앰
샘플
KDB
me
바디
크로아
디즈니
##거스
1⁄3
##관광공사
165
그릴
##빌딩
수량
총체
편법
김성근
김한길
아랍에미
밸리
뜻밖
실크
7500
당론
마셨
박광
틀림없
##인터넷
시아
재치
번개
동물원
정가
유령
노려
윙
##ost
수상작
통신망
##지청
맛보
너희
##버섯
릴레이
##통화기금
바이올린
프로세스
SF
1968
생물학
##연금
시킨다는
수사관
아레나
살포
격투
가습
매몰
파이널
와일드
참고인
검사장
난이도
농림축산
조이
수돗
龍
ab
피서
사천
##구청
권성
대학로
맛집
연기력
##셔리
풍요
##장면
예술의전당
##부족
버섯
새누리
전문지
##여금
암시
크로아티아
News
폐막
들어올
씹
도보
경제부총리
광교
녹차
폭소
기침
틈새
번식
##ON
화살
이랜드
長
##든다
VR
각료
임산
1977
성희
##라지
누드
##bell
##산동
경제협력
추기경
챌린지
시그
Se
아우디
##js
플로
열연
클러스터
유소년
사절
##슬리
소홀히
통틀
만세
##irl
성우
연립
대면
미묘
이바지
밸런스
##지르
울주군
국제통화기금
친숙
##폴리스
알제리
수표
##ign
ph
인위
단결
내비게이션
평형
자사주
저수지
퍼스트
城
교량
귀중
##ank
##her
##한다는
취득세
예결
빌미
일리
##lor
##PI
##영화제
계시
##park
산행
대인
듀오
##로이
인사말
좌완
아모레퍼
생존자
이어서
##sy
社
Pl
##천동
속성
정창
종자
개년
높인
버블
점진
미네소타
덩어리
티베트
지중
진리
고른
자취
수돗물
##하루
주공
생소
조원
엄지
##워졌
성급
프리킥
대졸
작은
의존도
놔
컨셉트
변환
오스
듀얼
##사이드
##상수
김범
엿볼
올리브
카자흐스탄
풍선
사라져
정민
MMORPG
칼텍스
도상
미성
조선일보
운영자
케네
김영란
OB
sw
##EX
호화
장단
전업
관념
촉촉
조연
시효
화랑
##들리
un
WSJ
평준
박철
세분
뚜껑
끝냈
예정자
마른
경륜
레이더
손색
##카페
낱
막말
##anc
##총생산
KS
히든
##론자
##홈런
면밀히
인파
입담
한데다
##사람
나옵니다
##려서
비추
일삼
몰려들
국제축구연맹
던데
심심
스톡
정은
정제
Con
자처
서장훈
교육과학기술부
신생아
복싱
1948
지가
레몬
양도세
테크노
토마스
##든가
동의안
##PL
훗날
소박
해수부
비아
파주시
##운용
##노동조합
드렸
아랫
입니까
AD
해저
촬영장
번홀
앞당겨
책임지
어딘
이체
정찰
윤석민
너머
지칭
코스타
대열
하프
光
오정
박해
##ink
중앙선
베어
##상스
황교
전한
산모
한국토
우루과이
메우
계신
더벨
한약
한국노총
골절
수순
일수
다승
과반수
##제당
시련
행적
중전
지켜봐야
##dh
효자
럭셔리
##MS
##OD
포항시
적폐
이노베이션
씨티
박명수
이산화탄소
볼트
1971
카터
해라
010
접대
신뢰도
反
up
초빙
체온
##ction
가락
경상남도
##esk
실무자
떠들
##CA
투런
악순환
노장
목격자
어우러진
삼가
로빈
빈도
수동
가창
농심
떨어뜨리
LNG
生
性
세울
견고
연차
워커
NLL
##다스
투자금
고루
매운
ABC
부양책
케어
술자리
유자
水
##now
술집
토목
반찬
##벌레
하자
청담동
번복
계약자
##렉터
##합병
익산시
##개발기구
심도
케빈
원했
안산시
##안전부
신안
적중
샐러드
##유리
변속
전해진다
가평
하회
레버
안치
누비
패전
그물
멜로디
이병규
차입금
휴전
오종
휠체어
제네바
MA
수락
외교통상
재앙
##클린
##매니
우린
1963
##인프라
구명
You
수평
온통
MLB
sy
굵직
손바닥
보호자
리틀
##active
함부로
보낸다
##박이
거스
퇴직금
랴
돌아올
##토스
실기
##관리공단
현물
##페스티벌
어민
##시경
강소
아랍에미리트
성지
##kang
그랜
클리닉
조동
##얼리
재질
公
사의
한진해운
대교
깨지
올드
시니어
연합회
길래
##저트
YS
양궁
이온
175
낙하산
어워드
발리
##마니아
산단
강풍
십억
연달
회색
창의력
이글
누락
고법
노태우
##ress
per
중도금
카디
분식
개점
송창
직거래
올라와
소양
성희롱
##인스
##산성
CBS
팔려
지하수
보선
##케이스
달해
야수
전현
사들이
얼어붙
##뮤직
부안
애완
##te
사리
튀어나
권하
정오
제사
오리지
임산부
프렌
사무처장
이랑
즐겼
더라면
부추기
마냥
르노삼성
##카스
랠리
##라기
기저
하이트
장재
서예
650
방수
##ite
기관지
텐트
경진
두부
##이어
관전
기가
이나마
##그레
CI
바운드
##싸움
최형
공언
안된
성악
2⁄3
공자
##루이스
원자로
##트리온
공용
박신
法
스키장
기자단
##원자력
##틀러
방류
저런
인천국제공항
의의
한국투자증권
일류
Bl
##ens
##ins
1969
보유자
##메르
관례
불사
배트
흐리
수고
122
특산물
랜드마크
##RS
스커트
파이프
##쿠스
객석
##코트
재연
급성장
등반
손대
간신히
임창용
대표자
##port
보인다고
불씨
다녀온
고배
손꼽히
##스쿨
반감
##정식
##에너지
히로시마
##사키
판촉
코리안
내건
##해수
영산
불길
브렉시트
동맥
갖춰야
선글라스
##gh
##BM
구절
2400
주스
##na
지금껏
발제
113
도산
알릴
화순
##영미
밀레
잇따른
##반도체
척결
왜냐하면
망가
당혹
애리조나
##교동
탈레
계획안
메탈
컨텐츠
##enter
제소
국정원장
서원
단자
첩보
치사
##ame
보이스
풍기
저지르
해줘야
##나기
##대장
벗어날
배워
국회법
할인점
결장
고령자
아사히
셀트리온
Ex
케냐
공교
군산시
어필
처치
왕위
강간
1962
어촌
엿보
오징어
##끼리
북아
##워진
따돌리
공대
참신
임성
##파니
구직
여대
박동
나르
##김없이
정신과
때로는
가닥
담당관
워킹
##안전처
나와서
쫓아
검역
pl
##장구
일깨
남양주
thebell
탄도
훔쳐
문화부
케네디
역삼
재산세
두드
아부
공법
ro
루트
정인
마니아
##리시
##sm
이상민
헬로
도울
물리치
숨겨진
식단
커져
월등
이학
재무부
會
말미
안타까움
CPU
국공
육지
연합뉴스
자수
서귀포시
휴직
한마당
여주인
##제공
소상
sp
이방
코카
판다
론스타
세밀
과격
##ous
래퍼
달려가
姜
차로
성과급
낯설
습지
##스케이팅
DC
##서기
국내총생산
오동
차리
백종원
다케
벗어났
1965
제갈
저력
자치도
한시적
자락
일러스트
##기술원
이소
돔
신랑
화끈
우익수
날로
여행지
낙후
터트
이종범
tr
##관계
##reat
안재
공황
송승
##위크
성수기
행정안전부
KAIST
박보
##의약품
재판장
정위기
Korea
런닝
무작정
have
무성
헌혈
KE
돋보인다
틸
기관장
정세균
노렸
항생제
##ox
117
내셔널리그
과언
서른
예우
2200
all
단숨
##int
페리
유착
이튿
헬스케어
이데
##에어
전전
##ance
##orm
수식
망원
사업체
##ich
세계인
수입차
##어린이
온난
상공인
##크래프트
말씀드
여수시
계류
##쿠르트
갈색
마그
마이애
##샤오
1940
반론
등등
Interactive
바리
공산주의
단숨에
이보
흘렀
움직여
통학
정글
na
혈당
댈
가져온
마실
SKT
##절기
놓쳤
원시
끌려가
이공
농작물
중거리
신문사
제지
바나나
##대우
기내
거슬러
뉘
##해졌
나돌
전자랜드
요코하마
다변
##용준
스타벅스
군정
석권
성황
##히트
##콘텐츠
수박
한빛
분데스
롯데호텔
작위
태안
소울
제약사
난리
물러난
##보안법
아이파크
5500
서울특별
GE
OK
전염병
昌
보트
종북
##자연
인승
동두
중랑
이튿날
취직
##크라
PO
프로그래
멋지
##로프
##러지
놀란
화천
퇴원
하나님
핏
일렉
not
활동비
늪
##기관
WHO
이어받
##어티
레지
균열
##현정
##운지
노련
가진다
다량
용적
##위치
메츠
구강
미처
송환
돌파구
황교안
넘어갔
BC
화백
아이스하키
★
공평
명상
DMZ
예견
선풍
##문고
##cal
덧붙여
미친다
##연재
감소세
떠안
bl
##스윙
대령
거주자
##스테이트
소행
##홍철
##호영
##ake
엘리자
문헌
두피
시체
##나들목
추종
이세돌
OLED
천지
난항
정영
##itt
산림청
탈레반
문희
기아자동차
달아났
요가
뉴저
강판
발자
요동
중견수
앨런
악몽
유고
폭스바겐
고흥
쪼개
근간
끈질
NAS
##크림
메릴
##예슬
##올랐
수석부
아쉬웠
명함
까다로운
세인트루이스
유례
##부인과
##xi
패하
한림
센스
바뀐다
청각
Mnet
문신
##허가
불복
왓
느껴졌
##각각
##전략
보행자
##kh
모티브
마이애미
동갑
##국어
복판
서울대병원
事
洪
천막
볼티
낀
어긋나
배당금
황선
번트
일감
페널티킥
김구라
속해
박시
우리투자증권
치마
편향
나쁨
가디언
조사단
디저트
디트로
합창단
다방
##석희
디바
무궁화
보성
에디션
투약
머릿속
세법
속여
울려
내려졌
심플
##다듬
##마일
로또
영양소
니혼
오리지널
##ata
정용
정일
AA
씁
장내
경제협력개발기구
코코
神
선방
##민턴
Gr
각질
결렬
##치아
선후
신승
집무실
##알리미
퍼레이드
##어졌
u
관통
##슬라
##수영
가솔
우드
검색어
제천시
##ool
갇혀
현관
몹
쭉
진열
내성
보라
앱스토어
분화
1964
디트로이트
추리
다녀왔
다녀오
##레드
石
Jcube
##킨스
##브란스
노래방
전라남도
연기금
표하
라오스
데이비스
색채
##현수
당면
##복합
류승
투게더
어장
배출량
돌봄
성적표
##엔지니어
볼티모어
분실
개편안
타격감
포상금
##IM
퍼트
##신탁
열세
중고차
##스트로
송치
유언
종편
116
포위
1967
oj
참패
담담
돋보였
OP
##사진
FM
식이
방탄
레전드
은근
촉각
가설
지업
순례
차용
공구
##edia
RO
조현아
영도
협약식
영암
줄인
유닛
밀어내
전폭
기강
이율
프리랜
##우회
##kwon
쓰인
휘둘
##바오
인플레
武
심재
액체
북경
친환
완승
해상도
매듭
섣
입각
일생
##병우
계약직
##사회복지
츠
모닝
문화제
세관
외교통상부
폭설
딜러
후세인
괌
반장
늦춰
고분
연세
박혜
##정원
따라잡
올라간다
분사
파고들
설기현
파트너십
쏘나타
울트라
끝낸
##걸스
##미안
중력
식중
발발
세종문화회관
고독
불명
케리
시구
분향
까진
혼선
국사
기해
종식
크리스티
선언문
무패
감귤
제프
철학자
미숙
통하여
깡
보탰
생겨나
##메드
증축
미스터리
지휘관
政
굳건
은행장
보잉
부총재
정부군
만다
마카오
발열
철원
心
골드만
선데이
##보호법
유창
공범
남학생
간혹
무심
아날
하룻
판소리
복직
무너진
ji
농식품부
##콜라
논산
평판
수서
포격
봐서
핑계
개업
산청
연락처
118
일궈
공교육
태아
선뜻
봄철
높인다
##국립
##중국해
불우
현대차그룹
성의
##레이스
퇴치
川
썸
이성기
식용
중앙당
##권력
늑대
잘하
MHz
##푸르
나토
밀린
줌
계명
義
발돋
관절염
톨
심문
##메이크
크라이
관상
안정감
급진
백두산
유능
투병
따라가
##심원
다니엘
##가드
좌익수
가열
##진우
알카
용돈
패소
수제
사당
종신
폐암
설날
##ase
동백
증식
요리사
피했
경량
닐슨
우측
흉터
레시피
기념품
모방
역부족
물리학
버지
승부주
아스널
무색
##미경
##OL
금세
김양
##경원
도의원
시식
6500
사르
알렉스
仁
홍천
do
위배
직행
지극히
거미
FBI
신분증
한판
##매니저
성대
##테스
극한
성수
노란색
쓰였
송지
얽힌
잔인
##성이
초선
서울특별시
Br
현행법
에세이
턱없이
충동
살렸
사진전
애써
내림세
인허가
이진영
절개
해했
참가비
개각
컨셉
##면서
손연재
##효진
전립
자아내
천황
동등
##플러
콤비
감리
##존스
치닫
취항
매칭
신시
안토
묶여
캐리
트윈스
란다
##나가
백업
Com
펴낸
원주민
들러
인터페이스
부끄럽
백남
안희정
당기순이익
##지구
사촌
개발사
김종인
지폐
무승부
##엔지니어링
주택가
박영선
노린
스완
##bae
쳐다보
최저치
통폐
휴가철
주점
144
디테일
##습관
##농구
비누
결핍
테라
##렁이
남극
으라고
내과
완만
닷새
맞벌이
매김
부천시
바닷가
잊혀
우라늄
good
아틀
##료품
##나눔
lovely
김시
도당
커진다
쇼크
점쳐
##코인
폈
퍼팅
거부감
기체
sklee
##52
벅
아가씨
점주
저마다
미비
원권
##51
##출소
yj
부산국제
##ond
닛산
보탬
맞출
##RT
좁히
으시
스프링캠프
수뇌
##부분
어땠
창녕
파면
황재
##ley
강동구
org
뒤흔
낮춘
지바
밀가루
##우먼
폭포
살릴
제니
기인
황태
380
스트리트
생체
슈퍼맨
축복
주저앉
체불
병합
분데스리
강기
팬택
칠곡
인피니
블로킹
##의학과
전가
외무성
泰
슬림
사방
저변
경복궁
동남아시아
항일
사은
기성용
허정
현대상선
스트레
##보트
예뻐
절상
2300
from
##노조
It
비빔
실수요자
德
##전쟁
세척
##교도
삼성중공업
레이디
백혈
대작
검열
##get
시험장
sm
##져서
급급
아날로그
산맥
거주지
BW
쇄도
##wn
한국군
우여
수용소
인터파크
##보장
ag
김희준
접시
허술
가솔린
미술품
허상천
선거인단
송이
민족주의
교민
사업소
##비즈
카테
노사정
편찬
##올로
금상
여행자
관망
시시
수정안
##봉사
복지관
배부
복부
부녀
사도
화소
##면세점
##에른
heraid
남아프리카
로드맵
택하
발돋움
##춘기
팔자
남대문
보통주
하이라이트
농림축산식품부
묻혀
##프로골프
양천구
통폐합
##jt
급히
경의
구했
삼겹
##able
경북대
고안
섞여
증권알리미
한명
에티
콜센터
덩치
##절로
저감
수해
##09
##곡절
##나우
##자문
진수
팽창
지지도
내려받
CM
구매자
##ish
패한
운운
KDI
울음
합참
격돌
맡겼
하소연
규범
녀석
응원단
즉위
게끔
편곡
##국가
##olog
재판소
##하임
숱한
서포터
베일
지망
기념일
리오
실렸
##ft
대표작
신인왕
블루투스
黃
사회복지
##푸르트
우익
인멸
법사위
증평
휴먼
변화구
127
긁
##라미
특가
서재응
연주회
##이스터
저절로
제너
심상정
수다
대명사
대의
정말로
정종
서북
점퍼
떠난다
월스트리트저널
흥국
끌어들이
농부
적당히
연구소장
소프트뱅크
##거지
##옵션
드러난다
모텔
습격
저명
블랙리스트
치료비
레버쿠
나들
연구실
우여곡절
鍾
서영
##게스
아이오
원스톱
조합장
후보지
아님
##브랜드
압구정
書
##상가
cl
박석
문양
학비
외고
이통사
애매
1966
가파른
안목
양형
낭독
뺨
##넥스
地
HP
라이스
##iss
신현
사마
로드리
미성년
위스키
콩쿠르
##AD
캠코
진위
##다운
업황
##헬스
ksw
##불교
퍼부
말문
훈련장
갤럭시노트
잠식
스티커
사수
밤새
쓰러져
부리그
각본
비축
합병증
행방
##중앙은행
니까요
##인삼
월가
##임자
불발
##세트
혹독
홍석
##ort
필승
뿔
##린스
##케미칼
유화
김규
무너져
전동
밴쿠버
##RO
외계
자백
저렇
전재
배움
##레어
대내외
물자
이완구
글래
알린
jinxi
현대증권
신해
##니카
##모스
서경
절충
전광판
jinxijun
이창호
##팰리스
##모닝
권총
전동차
구비
당직
비서실
오재
톱스타
##대성
##해수욕장
에버랜드
##레스트
경로당
고공
New
이남
이불
파열
124
코끼리
반칙
반가운
121
##혁명
가했
임재
심폐
우뚝
내몰
루니
적기
우물
품위
땄
예언
무안타
조지아
필기
##용품
장흥
끊임없
꾸민
명부
永
정운
절묘
급한
##다이스
흡사
스터
존엄
학자금
버지니아
김남일
가로수
1961
터보
Pr
모태
제명
획정
전시실
숙성
김근
인증서
지녔
꼬마
##pt
조형물
여주인공
육류
갯벌
문정
푸짐
유비
게시물
##방향
##ash
폐해
에볼라
##닐라
경쾌
묘한
벼랑
김문수
김주성
일병
런닝맨
가이
도어
대칭
총리실
##대왕
##용석
##대기
##펙트
JYP
박인비
##꺼풀
랭크
##실히
##겨울
청바지
##엑스포
가면
살펴볼
공여
##일리지
택한
이승기
평했
어우러져
##오드
##넘기
Sp
한승
##레라
##보선
번번
예배
구슬
깨끗이
##페어
위암
지휘봉
유라
##EM
원치
산은
흘려
외자
바이에른
토익
관해서
고취
여겼
CIA
범주
##추위
##슈타인
서거
徐
##트륨
KGC
민자당
##부산
대우조선
두각
133
심했
모노
안병
얼룩
신한금융
굴욕
용사
하단
##공개
안양시
之
아담
다가온
##테나
경주시
尹
뜰
구애
나이키
콜로라도
##서리
지드래곤
##ream
적십자
유교
정액
마취
패션쇼
추징금
감청
새겨진
북괴
##연구회
DA
셀프
본다면
yu
복선
방울
키움
음악가
##지마
리본
바늘
경직
웃돈
대치동
어린이날
베컴
라이선
Me
의성
치켜
바빠
역도
##alth
##일치
매기
홍성흔
차이점
##댄스
건너가
다룰
보일러
##진호
방조
노동력
신세계백화점
##나르
관세청
학장
동아일보
스몰
##쿠니
프랑크푸르트
표심
게이츠
조직원
첨부
체험관
국가보안법
관중석
##공대
지킨
島
포획
학생회
##서양
겨루
##ater
다던
##교육원
서대문구
##위즈
자작
##득점
소화기
##눅스
복도
왠
서상
위기감
빅리그
소파
출발점
2100
보단
사치
미성년자
휩싸였
산부인과
##파일
주변국
IR
습도
노벨상
내린다
불러일으키
박형
##문화재
심기
넘어설
생략
르네상스
합친
경산
자막
퓨전
리니지
리모
수칙
간이
절하
##청소년
증권업계
통한다
쉰
능가
전문직
##수아
한국수
틴
부산항
다퉈
직책
經
jm
쿡
­
##du
##정우
상부
##신라
블라디미르
저술
도난
놀라움
교육장
##군수
김옥
##ove
뿌듯
##다오
못한다는
##NP
불문
##이즈미
##스케
미시
太
##동욱
여타
굴러
와이파이
묵묵히
서문
액면
이직
하야
바닷물
유희열
닉슨
##대비
##통일
마셔
단국대
$
이우
남해안
##인연합회
왈
의거
126
225
선후배
공과
절단
듬
리치
군사력
는커녕
다져
충원
양양
동독
##맞춤
뷔페
어울려
##지기
아찔
스타크래프트
주임
언행
접견
잇몸
승선
지부장
##아산병원
##혜정
다친
인대
##바이벌
초유
호박
발전기
헤르
사상자
전망대
시간대
라마
일대일
성산
##오브
좌측
납세자
슈퍼주니어
##싱어
괄
공권력
##덕이
이다
##대식
평안
힘써
청소기
박홍
시크릿
체격
부산대
영남대
바우
커리
빨간색
가출
벙커
무거
답니다
##경제연구원
던질
##ement
참치
–
착안
지식경제부
놀랄
교구
개도
번갈아
나날
이니
그런지
오카
천식
종족
잠실구장
집결
대나무
돼도
느리
귀엽
뛰어든
여직원
##카메라
Content
##예진
장동민
감금
직격
수역
단합
연습장
##EN
##창기
김덕
나타낸
자행
밝혀진
초중
크리스토
##은혜
오버파
##기념관
가장자리
##렐라
문화재청
자릿수
한국야구
맴
김종민
봉화
조인성
겸임
동선
자의
##혜영
김부
##니엄
김종필
##막이
최승
망치
지킴
결승골
한수원
루마니아
dr
스물
파탄
##더슨
뭘까
노원구
방재
화사
行
배역
마리오
거물
버거
##osit
##순간
충청남도
##aw
시네마
태평
감염병
전지현
당근
손발
APEC
##후보
##소방
##ai
Hub
##루수
서울대학교
전라북도
배용준
밸류
원본
8500
십만
강대국
선로
기권
퇴행
건보
챔
野
##리더
최지우
CT
흔하
##비어
##세포
섹션
2700
지켜봤
부흥
No
옮겨졌
메트로
##비에스
개신
평정
석면
chc
세워진
태그
의원실
햄버거
히데
하버드대
독보
##개혁
짬
무주
미식
은밀
##글로벌
휘두르
후쿠오카
어둡
올인
##ife
노령
망라
비평
하순
따랐
배민
자초
조롱
증원
농림수산
문전
내국인
원주시
사무관
질량
##상부
##가치
브랜
##대표
##어들
ju
동사
연석
존속
사춘기
법률안
내려진
배드민턴
도하
킥
##출판
OST
강민호
2800
IPTV
수탁
폐렴
표류
park
가르침
니트
서운
알맞
로그
타이거즈
중소기업청
완치
고이즈미
판결문
덩달
펼쳐질
무술
운임
코스닥지수
경제력
##왜란
신의
아디
世
##저런
등교
희소
견지
단추
그린다
##협동
산물
천문학
의원직
거니
형법
##리포트
모공
대응책
스위치
##뜨린
제발
경부고속도로
애호
삼겹살
사뭇
매스
고온
잡음
특목
##IE
위태
수출액
상여금
탄산
오릭스
책무
和
최형우
경악
hjkwon
##서전
모나
제과
위키
스릴러
##플래
1949
에드워드
골드만삭스
##루트
白
##뜨렸
##오피스
가자
간과
생명체
##느님
##타오
호프
후생
##바르
제네시스
조폭
컨설턴트
귀성
국민당
연장전
##pen
각급
변속기
##koo
봉지
경수
불거졌
시외
공사장
방패
해프
서너
##지방경찰청
해답
##예원
판문
##혁신
우병우
벌리
오타
자활
광복절
여운
해독
##바탕
닷컴
문법
132
스테이크
db
의총
##US
권혁진
서식지
##완종
돼요
핸드볼
여진
학술지
처사
##ail
장충
떠돌
SOC
몰아넣
##티노
##앨범
번거
보온
레이건
##무니
국화
##국민은행
시가지
##캐슬
하사
합의안
강철
처장
마이너리그
일등
불려
회원사
##res
##ns
교육원
제품군
경제학자
몰이
장영
풍미
꾸몄
##igh
꼼수
찌개
주관사
만연
변모
웨어
##amp
변질
선봉
남궁
숙원
팍
##아라
교전
친인
조교
체형
중징
주거지
##주로
선구
호칭
빌보드
부시장
공석
빌린
간다는
그토록
UHD
급부상
김태희
청순
흉내
애교
2600
사모펀드
뭔지
돌아간
예체
##테이
##청원
똥
트레이너
##올라
승승
심리학
되돌려
##공주
줄리
간염
개수
인준
승려
테일러
##도로공사
법대
송전
꾸리
어김없이
##마킹
분장
스와
전화기
현대사
영업점
읍니다
정연
농수산물
안된다
지점장
대니
Contents
##실내
집약
이런저런
현존
만장일치
팩스
넥타이
만두
친인척
##스크포스
##프라이즈
국립중앙
산란
갈아치
처했
다나
돌발
두드러지
브라질월드컵
멜라
뒤덮
##남부
재량
기질
나와야
덩달아
소재지
엄격히
넘길
연장선
하나로
운하
따를
소비량
다뤘
침범
고마움
강령
손보
식욕
미지
기울였
불륜
기획전
셔틀
소시
건교부
중성
현저히
워너
사살
목적지
임진왜란
연다고
쏜
병원장
토요타
레코드
불평
비위
경영인
##불리
방산
민원인
한보
소비세
연어
비스
다시금
노라
안지
850
구단주
기선
움직였
##ls
인계
기록물
스케이트
在
동정
읍면
체면
끼워
pe
서울고
친일
대검찰청
##금리
원내수석
양반
Sy
구본
馬
손익
급수
병실
아산시
벽면
출사
후방
전남대
밀어붙이
테마파크
##53
해낼
학교장
그런가
font
관용
유적지
태백시
상도
##블루
파르
가창력
깊숙이
선의
제때
이브
젊음
근린
lkh
장안
열띤
갤러
내야수
찼
##전지
파라다이스
베토
노키아
정태
조선소
특약
호스
둬야
##미래
원망
pol
DD
##에이치
한기
NHK
순창
##자금
막연
연골
순유
항산
억지로
특별전
송종
수사대
았었
파우
##송이
##마루
심신
삼성전
성완종
라스베이
손톱
엘리자베스
빨래
한국도로공사
##PR
##주곡
1946
예체능
적임자
세간
방송통신위원회
찌르
폭주
난감
동래
산성
특전
총생산
남양주시
안되
원두
GA
스톤
##경제연구소
강정만
##ina
조수
저주
寺
##국악
씁쓸
노소
인수합병
다이빙
이상형
인가요
지주사
kjm
하느님
부엌
팬츠
화기
흑백
달아나
저격
운동화
곁들여
어울린다
비우
##57
##ade
통째
사무장
증오
면세
처하
전문대
골목길
프리랜서
생수
출입구
##네이션
결말
베리
소사
귀화
낮출
회부
##스타트
역습
설계사
##더러
동유럽
이승호
##구석
병상
선암
사라질
태연
환전
베토벤
수심
동맹국
##중기
매너
오송
##시원
내란
노점
##방위
대림산업
촘
경차
명실상부
재혼
맨해
##정보원
닭고기
흡연자
SH
br
해프닝
##오션
골대
백수
##거슨
심장병
##신당
질책
Mar
커서
되도록
선대위
##자키
상응
셀카
스며
시안
밝혀야
우전
신명
빅토리아
차도
370
1955
##생태
스트레칭
##ax
일품
수컷
##가짐
##조세
순실
브레이
두드러졌
##돼지
##든지
정석
텅
이민호
툴
몸담
놓였
대충
비장
실마리
용감
여자부
각막
알렉산더
연례
병장
이재우
증권가
뾰
##리나
基
1953
224
어딘가
비트코인
##대학원
서울아산병원
끼칠
트라이
내포
뜯어
샤이
##대부
태생
미네랄
##태현
올시즌
그리스도
벤치마킹
##식물
가족부
##ej
천체
##OA
넘버
##글라
벗겨
##심의위원회
구출
애프
타고난
##톡스
문학상
차남
함성
영화사
동인
##54
땅콩
항복
물려받
수자원
프린트
129
홍정
##chang
1958
명심
나들목
양준혁
홍보관
흔들림
클라라
행정자치
漢
##예프
호환
두려워하
전셋값
때론
허점
##패션
World
거래법
과학기술
##개발연구원
##CE
열사
시달렸
바그다드
가습기
농경
상품권
트레일
보디
모로
가산점
본청
뼈대
##문화원
벽돌
중저
끼친
아랑
##틀리
격파
배민욱
지중해
수뇌부
##메인
킴
One
들린다
좌전
재경부
진다는
##성장
판문점
삿
유병언
유모
매달리
핸드폰
찬물
리눅스
캡쳐
전산망
부전
빗물
쌈
리메이크
의복
mkbae
지뢰
340
액정
밀라노
}
단련
타개
폭언
##올로기
출연료
거들
##iron
연구비
역내
김중
방황
맡길
라스베이거스
뒷면
LPG
##가족
몸살
지지부진
지검장
##기준
트루
팩트
초음
##진흥공단
개도국
말투
만족감
치명적
##바바
전이
오프닝
펌프
##모병원
##테리아
걸러
몹시
이상화
이데올로기
낙태
세정
개화
직급
켈리
퍼거슨
배낭
활용도
##erv
해야지
열량
조던
타진
스테이지
##플라이
생필
수유
일전
아쿠아
엔지니어링
과대
방청
강남역
김태규
학창
내려와
뭉치
상경
TG
안기부
##파워
##평균
양지
킬러
세계관
식장
##은경
##공학
산업체
##동자
##플레이오프
구위
의기
##클래식
난관
양쪽
NYT
사들였
##진보
루스
클렌
의전
발대식
시트콤
알림
버릇
정호
宗
계발
라이선스
버금
cas
##전시
다라
290
유럽중앙은행
행자부
복리
문책
감염자
조건부
생필품
##보리
컴퍼니
구태
출격
연출가
연희
합세
각인
##갈이
산책로
이태원
수니
코르
마르크스
숙련
태워
베이커
돌출
첨예
스러울
김기춘
##고사
박선
이홍
형국
띄우
이봉
금성
##mun
한국통신
매거진
전라도
##뱅킹
풀타임
토리
##미애
브뤼
관영
후보군
한국야구위원회
미학
광경
퍼즐
롯데쇼핑
어기
김정남
소수자
슈퍼마켓
##지하
으뜸
행정자치부
간선
강습
금물
일식
라미
로컬
맨해튼
카운티
고점
징크스
나아갈
자금난
##vel
협찬
내려앉
명장
초보자
##착륙
##59
pr
느린
믹스
宋
양승
서바이벌
GP
잔혹
대란
{
##역사
필두
증여세
간병
넓이
불릴
준플레이오프
스페이스
줄거리
세라
체납자
춥
요정
옌
로움
청결
캡슐
우수자
##ert
##로이드
한화그룹
##덕션
완성차
앞날
고용부
신동빈
##리에
정병
견뎌
막아내
캐치
##소비
SDI
나간다는
선동열
냉방
빼어난
레인저스
##메이트
##데시
경영학
쇼케이스
SO
히틀러
정명
##pm
잠들
김건
상큼
칼라
초창기
최강희
그거
Fed
##훈련
추월
바치
구한
배아
팀원
##pl
속이
##히로
##리학
복면가
닛케이
이계
부지런
가리킨다
##MI
148
NFC
실험실
신해철
팁
관련법
##재정
137
스콧
담백
때렸
구석구석
수식어
##동산
간행
1954
강우
TO
둔다
마일리지
몸통
독성
##도스
고국
싱어
##nt
섀
버핏
펀치
##심사
자긍
##살렘
##에다
어느덧
달력
배심원
통관
제표
울타리
참담
수축
토의
##협동조합
MBA
그린벨트
곰팡이
어휘
김해시
##폴트
쥔
프로골프
##ka
허무
테마주
태화
##임새
북측
jung
##con
잠복
바티
특목고
SN
지탱
띤
암컷
저리
회기
채운
안전망
구치
반하
치부
##세데스
자랐
##ll
으셨
이스트
급속도
스텝
샤오
달서
대남
신민당
##숭아
##stem
480
덕수
##루살렘
삼보
채웠
모터쇼
As
용의
##산면
신동엽
멸망
소셜네트워크서비스
##버스터
NGO
입출
식중독
청나라
##코니
권한다
상세히
##럼비아
1910
명쾌
오클랜드
##동물
헤어스타일
제격
아울렛
내려왔
집어넣
쉬워
김종국
##날드
유역
몰아치
##던트
##행장
이용료
英
물색
봐요
은은
올라간
자긍심
##바이러스
무수
텍스트
지엠
陽
나아지
##any
신다
스완지
이공계
主
커리어
분유
승기
##손실
리베이트
원광
방범
아깝
고추장
출입문
##마니
네오위즈
뜸
홋
비키
그립
도전장
경비원
적재
엇갈렸
구설
기형
##춘봉
선율
왠지
저점
야말로
##월드컵경기장
##촌동
경청
##강전
다우존스
도상국
소개서
뒤져
예멘
보정
억류
##러기
##렉트
계량
이재오
문단
산화
약진
진공
불타
gr
광해
별장
##로봇
파란색
툭
다쳐
닌텐
낙점
성기
성실히
##보라
잇단
GHz
앤디
카다
강신욱
산수
직불
괴산군
줍
썰전
선발전
북적
태스크포스
##더드
통행료
##enc
환하
◎
데모
모교
문득
1919
지켜볼
끓여
덥
힘차
ar
놓친
해결사
iOS
소비재
##피털
는구나
지날
허니
007
누출
##깨비
낙마
보건복
접어든
1956
##ET
승승장구
귀찮
우주선
테헤
온전히
OPEC
트랜스
##득이
20060
모기지
시베리아
하드디스크
차츰
메르세데스
세례
##porter
복음
##자료
콘퍼런스
편중
아태
##ey
두터운
난무
##ism
예탁
폐수
은데다
피치
홍익대
고석
오상
난자
사이언스
##난영
실증
##캐스트
원어
승부수
왕비
어려서
html
두렵
선교
제설
가와
##코르
##미스
입히
궁중
출소
원내수석부
료
김재원
##누스
병무
##수만
##지난
운전사
엣
143
야스쿠니
##원전
2022
구워
아치
사재
임지
기자재
대신증권
넘어지
의리
리츠
주요국
압둘
##바퀴
##인트호
그려진
청사진
스탁
##ites
사교육비
김하
##iew
독소
성북구
영천
베어스
근황
손정
##지역
무라
수없이
최윤
이인제
생사
필연
샴푸
##터카
EL
번번이
##ix
##해도
뽑힌
러브콜
##TM
송혜
##oph
쫓기
##클라
Ad
부호
변한
수로
구금
##승원
구미시
보병
##릿지
갖춰져
통째로
인화
강릉시
콤플렉스
시찰
토요
쓰나미
단언
초라
김포공항
모음
빼내
##이동
Gl
전보
##랑카
하마
에센스
애쓰
자사고
유린
샬
GPS
유영수
꺼냈
게임기
0014
##어드
마음먹
목장
진천군
3200
市
좌중
프로젝터
프라임
살상
돼왔
사탕
따라붙
##ics
어버
엔딩
염기
팔린
김민기
로드리게스
농기계
양복
펜션
134
보합세
LP
허영
각별히
이분
욕실
들어온다
산사태
어플리케이션
출입국
교향곡
##비오
##적십자
돌고래
##메디
스탈
찍힌
채권자
싸웠
초조
하부
결정전
사단법인
都
##내장
##년기
원단
##national
식약처
말씀드리
##버터
##챔피언
매도세
##네이루
##심장
##번스
비주얼
무르
쾌거
##강호
판례
처리장
##텐데
령
담론
토막
터무니
시차
일손
프란치
홍세
##ower
지경부
램프
양말
오메
최우
年
따른다
원리금
특허청
제안서
종말
소란
김성주
목걸이
이종석
초구
유골
헬리
가옥
송정
가뜩
윤영
신하
분향소
김봉
성서
조끼
장례식장
옮길
국제선
좀비
##스타디움
##실련
##태용
138
삼양
베풀
흐뭇
미쳐
채무자
##푸스
고은희
실리콘밸리
박유
기흥
아인
잔잔
선발진
이상훈
기공
310
퍼블리
##au
순항
슬럼프
##ual
한국관광공사
##커피
비명
##실내체육관
걸스
136
대문
내심
보아
광산구
사들인
스모
내무
기꺼
sec
이석기
자서전
백혈병
홍춘봉
##노프
민요
##정보통신
분출
힐튼
소총
아로
3600
개신교
가뜩이나
최종전
모차
문화방송
±
게릴라
라이온즈
원더걸스
조르
말끔
##끄러운
##테크노
카를로스
서슴
손아
AK
河
##부리
장지
경주마
예선전
챙길
##경희
##말라야
my
금기
초음파
주치
퀘스트
망원경
남중국해
눈부신
조선중앙
이채
146
142
민망
천정배
##올림픽위원회
420
트러블
송일
파이어
삼성전기
정근
버라이
##ild
##PN
##지주택
킬로
어버이
영위
티브이
하룻밤
어리석
##atch
경전철
##방지
연못
선천
##조약
명인
법치
설립자
대형주
코스타리카
막론
##평가원
친지
통풍
금융업
마음가짐
트로트
정쟁
##테면
관공
맡긴
casin
##독부
경협
김동주
세이프
##티넨
##홈쇼핑
##ty
군림
식수
까다롭
##ohong
자니
##사이버
가할
박창
열렬
터뜨린
합의서
늘린
##리자드
##디스플레이
더운
사투리
노홍철
소추
밀러
바오
곤혹
대진
붉은색
gogo
나고
##데르
곧장
##퍼레이션
1105
관저
피해야
블리자드
계룡
편익
인하대
##arket
##ations
casinohong
농림부
정파
선순환
들려준다
스탠드
페인트
의례
생식
아비
선상
김제동
가까스로
격화
부제
##인회
불의
내사
평택시
##듭니다
##리사
결재
최동
성동구
친밀
##유산
##스탠
##청년
##추세
두드리
설화
견딜
알라
오종택
보여야
필립스
으신
장성택
수강료
고산
동작구
크레인
집요
##냉키
변비
진솔
IF
##데자
스탠더드
식품의약품
작정
학군
볶음
소유주
무고
안락
박쥐
전성
역력
지쳐
시행사
이적료
흩어져
기울여야
보르
오세훈
##az
My
##ustar
개회식
표지판
장학생
특선
세자
귀한
아이티
멜론
개구리
나경원
송혜교
역삼동
로이
쏙
기색
현충
삼국지
로펌
절로
버텨
1959
유람
##네이터
가로챈
계엄
하지원
밀수
정할
평점
che
다룬다
히말라야
kyustar
##메이커
華
##com
##업종
di
1321
3300
##맥주
##지주택공사
##미아
非
양면
판시
左
버냉키
양현종
들이받
조개
삼천
엔저
퓨처
감히
이케
현판
##행선
포퓰
카테고리
어미
브리티
수은
시총
플러
##베스트먼트
나물
Sc
단거리
731
프란치스코
비염
추징
1947
한국산업
기꺼이
##ople
CES
혈중
영상물
제구력
##ise
##정신
길드
빙상
박영주
김정환
기다려야
서사
시승
최명
吉
善
더해져
경시
戰
위례
기정
멸치
대왕
차근
도시바
DTI
강의실
반출
병살
선양
민정수석
궁합
코팅
행각
##선물
영사
##민당
권위주의
최병
열성
NASA
사업주
리뷰
후원자
광학
상어
III
쿠르드
도비
확연히
시어머니
##포즈
단단히
인증샷
들렸
추출물
추미애
킨텍스
장만
주니치
##라톤
##오버
동영
뉴저지
고은
함경
테크놀로지
갖출
가다듬
테헤란
앗
##핑크
제반
##라이브
황선홍
요격
콘도
치러야
콜라보
##관절
포석
##라이터
눌렀
구내
구토
##시세
권했
##처분
제이슨
안드레
진척
##체험
고를
수매
강박
국빈
아이비
will
헤쳐
격투기
식습관
노린다
플로리다주
##RC
퍼졌
##보훈
##순이
에듀
주검
샌디에이
밀란
가파르
삼성카드
지워
찔러
서천
YTN
Man
수임
##제일제당
스토리텔
즐비
##디지털
잔금
장동건
관습
통신비
##학사
국교
리프트
팥
위함
방미
일사
부가세
posit
내기
사회당
BA
리라는
파출소
조제
디폴트
갸
웃기
일진
이글스
##혈증
촘촘
color
체납액
##ah
아꼈
사고력
##투증권
억달러
아드보
##데자네이루
PP
만능
왕따
스케치
교란
SI
적립금
##주민
중학
방문자
만년
양주시
군중
전인
활주로
古
흔들렸
물꼬
##우저
no
뒤바
의아
터질
슈즈
has
전임자
접경
펜싱
반열
벌레
원상
연신
션
##afe
##산품
들썩
안종
예치
하루하루
聖
오인
이정하
돌아온다
시합
레슬링
어마
체육회
서청원
도핑
153
갈랐
불면
비빔밥
1952
THA
알려준다
off
##시브
외로움
건재
정치가
외주
쿵
친노
롯데전
이근호
샌디에이고
yo
데스
KBL
##코지
백상
리우데자네이루
kcal
모을
회비
##시황
유민
쓰일
생겨났
곡성
균등
그제
te
의안
부설
끔찍한
퍼시픽
무디스
重
소나기
미들
묘역
##men
허구
##픽스
사체
헤매
조승
은평구
##스프레스
여군
걸어가
한국토지주택공사
구타
앙상
샌드위치
수녀
딥
차출
그림책
워드
아드보카트
생술
초상화
축구장
부럽
악의
드러날
무지개
下
낙인
봉급
PMI
##카이도
막힌
훔치
##소스
TPP
##메스
논설
흐트
장려금
완패
통찰
##선미
한동
리테일
청도
스위트
군함
당위
톈
동호인
발암
산후
조광
할까요
ad
내보냈
돌아간다
딕
좇
눈썹
디렉터
Comp
##운하
역전패
##날리
나뭇
정신력
##화장
근력
여관
획일
농식품
이영애
뜬공
##기념물
합숙
마사회
쑤
누수
펜실
##photo
목욕탕
알리바바
조민
밝혀져
프랑스어
스포트
강물
##기원
내분
유럽축구연맹
이서진
완주군
스트리
미련
##코비치
난타
희박
횡포
직격탄
유실
소량
멤버십
520
일까요
선입
카리
##베르토
소득자
##보험공단
고어
파나
냄비
동갑내기
##고용
##소니
모녀
##kj
노부
최준
껴
기쁜
변제
식생활
KI
얻어
서약
수세
lee
아슬
##상품
다다
불가리아
이를테면
고갈
담그
송종국
넋
회고록
전북대
넘나들
쓰러지
판매점
##ition
폭발물
야산
##모금
영국인
가든
찬양
한국외
베드
도가
값진
춘추
조그만
인민군
배타
151
넘어갈
147
naver
Ge
양수
경지
염소
미스코리아
##der
jungha
한라산
출항
##베르트
외무부
토머스
TE
마린
무어
수비진
들였
광진구
9500
예루살렘
##파티
플라자
묵직
피트니스
##보스
샹
##마음
긴밀히
吳
아연
대한상공회의소
GT
TK
울림
스텔
성토
몸집
흥덕
유명세
##DS
따름
##러운
스케이팅
##게요
의과
찜질
중앙지법
고원
줄여야
벌어진다
패드
포맷
3800
포스코건설
사지
가르시아
당수
압수수색
이날
침실
힘겹
연습생
하류
##meric
선회
사우나
동급
개그콘서트
긴박
##보레
남자부
장대
하이마트
재야
정몽구
최원
고성군
##매장
국가안보
골반
떨어진다는
준다고
녹여
풀릴
임실
관악구
유효상
부끄러운
##여정
편차
PK
제청
ᄉ
다가올
관공서
안구
틀린
황우여
달아난
폭파
##버리지
##관실
쓸쓸
대공
kje
법무법
하남시
##십리
열중
##볶이
화물차
나트륨
mdh
시교육청
청양
안테나
니즈
어수
맥스
어벤
조감
마스터스
우선주
예비군
氏
김훈
보여줘야
##오른
실로
조희
중장년
명백히
디바이스
백일
터뜨려
약탈
투혼
조재
##플란트
바랐
原
세워야
녹취록
마필
이물
중공업
순정
잠자
계양
익혀
1957
대청
인신
##GB
##라드
경미
제트
입안
저우
무모
나열
틈틈
TS
유통업계
수록곡
성탄
컵스
현저
올라서
##스트리
카니
##abc
동종
은닉
gogog
튀김
##도우
141
초고
김철
##ict
싸워
더할
요하
대화록
격상
심부
해낸
외벽
HSBC
링컨
추진력
孫
무릅
나고야
방글라
아시아축구연맹
미정
버터
분업
뉴욕증시
설악산
ac
On
오갔
UCC
##규어
민경
##ning
계수
쇠퇴
핸들
PER
근래
일탈
커트
홍보물
리얼리티
##reporter
gogogirl
송재
차액
일어난다
간결
아낌
아반
131
정수기
##추천
잉크
##지원청
국고채
두산전
핀테크
신변
독재자
프랭크
##다녔
볼턴
올림픽공원
##프라노
최인
검찰청
##터널
배영
호두
149
라운지
오르내리
##키오
이춘
현빈
개포
##추세츠
난치
뾰족
NBC
카탈
##내티
##ose
##커뮤니
강영온
男
돌아선
상담사
yoabc
유시민
yreporter
개최지
손대선
함부르크
澤
총통
##소수
##윤식
구심
수니파
제시카
##도나
기행
드린
And
정해져
##ane
##브리핑
##유니
당겨
가격대
오라
안마
외압
자판
차차
##관리위원회
##어링
ᄂ
입힌
사라진다
감식
미즈
부사
##위안
##카데미
대장암
숭실
요란
급등주
지원단
##세라
상보
이해찬
편집장
엠넷
굳히
차범
FPS
春
##매치
SSD
단층
금융투자
멘사
한의학
##레오
영동군
종묘
김형섭
매달려
##스처
순발
메리츠
음성군
현지인
으니까요
난조
드컵
##일관
##칫솔
배열
생강
##ally
신시내티
제국주의
발코니
오명
파리바
물씬
오미
ICBM
this
시아파
카이스트
EA
십상
칼리
박신혜
##언론
엇갈린
크리스탈
##도사
시금
hong
430
단적
넘나드
합의문
##워킹
애착
항체
Americ
광역시
소유권
벼락
무용수
때린
반가
사시
##리서치
부경
엽기
느슨
윤종신
이경규
변액
포터
좋아해
재회
비수기
하루빨리
방글라데시
파파
##화법
페미
스탈린
혼수
진주시
외롭
역외
139
포퓰리즘
##미팅
나성
사저
수모
머신
잔고
분기점
뗐
##문트
방불
싹쓸
온건
수석실
도맡
페르난
내려온
답안
For
방심
김영철
##개발공사
종금
섭섭
진흙
종부
WTI
장년
칵
##줄기
##바스
폄
아껴
프로필
152
화분
배관
일반고
##land
##바위
협주곡
되레
自
강경파
대한체육회
두꺼운
휴양지
jp
##ody
대부업체
KL
SPC
리딩
지오
쓰러진
바흐
씨스타
이재명
지동원
스마일
불고기
지원청
의병
카피
##동부
회계사
엄두
수재
조미
##alk
구독
거부권
##폴레
날린
안동시
싹쓸이
대추
##지하철
얽혀
성년
확고히
엣지
그래프
##멘스
##상승
THAAD
스토리텔링
돼온
추돌
##변인
각층
애틋
병기
분홍
##차근
sky
##보유
무등
안장
옥외
하체
대통령직
갤러리아
리라고
노고
##CS
##교차
단원고
모차르트
맞먹
##식장
만류
황토
총학생
장진
성직자
부닥
GTX
카다피
넬
##외교
묵인
950
김성수
플레
빼돌린
견본
정수장
카페인
도용
##가연
청송
떠올렸
드나들
사은품
좌익
춘향
##les
##민주주의
사진가
짜여
검문
그러다가
가두
상암동
일터
##틸리티
탄성
국제법
남발
신고서
부주
페이퍼
최고가
면회
우방
이언
##ital
뒤편
##ivers
모유
비화
##ike
타순
##지부
김응
구대
부부장
풍물
자위대
##종합운동장
한국농
레미
섭씨
크리스토퍼
태조
유산균
아닙니까
차근차근
산유
평가사
부츠
임태
빈민
차상
1951
대파
오대
남도
세터
블룸버그통신
김경문
靑
POS
심폐소
큰일
협연
후폭
초석
미약
박지혁
Fr
전구
##시드
강연회
후진타오
벌렸
한탄
파스타
내쉬
카운트
살충
다세대
물러서
포탈
해산물
임팩트
중심부
아시안컵
단조
익스
덤핑
천연기념물
##동맹
##기사
史
##융합
불통
##자스
후자
##어버리
##체인
양희
154
가금
jg
윤상현
그리하여
졸업자
##베르크
여명
##러미
BI
이력서
톰슨
헤어지
발광
하나대
당헌
커넥
멈췄
상담회
원어민
##ier
납세
호출
뜨거웠
이승철
##rc
장서
陳
호의
니퍼트
조선족
김현중
완벽히
송년
수건
말려
최규
닌텐도
개명
##obal
가져갔
조계종
신호탄
##처벌
재주
FDA
원재료
##중일
인민은행
옵티
틀어
집권당
뻔하
일찍이
##DC
칙
복역
종속
##브리지
산뜻
개선안
브뤼셀
로테이션
새내기
천둥
광명시
김포시
한명숙
압승
전략가
강석
산적
생계비
내뱉
본체
중금속
아랑곳
야유
신데
불능
퇴사
##시네마
한화전
tw
웅장
회귀
##지원센터
##지도
##제과
조준
출사표
##제르
퀄리티
상계
굿모닝
실망감
못한다면
동양증권
##cho
처신
후안
##커머스
괴롭히
상근
강용석
정형돈
케이블카
##상사
미드필드
한국과학기술
폐사
門
##jo
720
승수
so
오존
제인
혹평
##히드
오쇼핑
##경제인연합회
단면
스핀
##갈비
##갑니다
##바리
당첨금
4800
##아메리카
저기
##비서관
##음료
폭증
삼시세
##ology
거침없이
##온라인
중앙아시아
동두천
생후
학번
법리
##마차
받쳐
아오
끼쳤
柳
아팠
자연히
사계
제각각
비운
슬프
사들여
테러리스트
##다나
안나
삼시세끼
뼈아
가이드라인
방중
사비
通
##세웠
福
##데기
##도리
리프
##gr
편도
석상
삼촌
식초
아역
보이콧
化
교통량
김선우
강세훈
그때
마블
캐논
틈틈이
결사
아무튼
선교사
이머
버금가
5700
얀
positive
##즈키
eph
泳
이용하여
선다
수협
몰아붙
판독
상무부
황재균
386
남다르
이현주
##가액
ephites
이택
라든가
##리히
삼청
총영
박스오피스
##상담
##롤라이나
報
HA
##랑드
홍문
쫄
우발
출토
##소영
고마운
식스
똘
거인
##오피아
Car
교단
모셔
하승
res
##현주
세출
##거름
접점
##ath
분석가
만화가
사진제공
##드림
수족
다닌다
복숭아
##기름
합시다
정회
헷
필로
네거
하오
##인삼공사
허탈
흔쾌
빠짐
윌슨
총량
iron
劉
딘
끈끈
김재현
##탄불
img
첸
ah
##stal
리뉴얼
##성모병원
병영
콘테스트
둥근
##to
광둥
허재
계투
도메인
1941
##질러
맞히
먹여
카스
대표부
할애
호나우
칫솔
##VE
경상도
테라스
김성태
##상우
잇따랐
이이
꽁꽁
세컨
우완
전태
All
홀드
기억력
힘겨운
담양
형량
한문
내리막
오션
무마
박자
후발
서포터즈
右
##분석
휴무
##모금회
틀리
##검사
##eek
임영
PR
기발
##보건소
##란도
##리언
Sm
다진
농협중앙회
영조
International
나사
목포시
##약자
양평군
##신호
강압
교묘
one
연천
복지사
쟁쟁
약보합
##어마
051
연고지
봇
애칭
송창헌
##동기
이스탄불
렌터카
##뚜기
계주
근성
정찬
출두
혼전
수염
시킴
이권
대학가
아디다스
##폐물
##우마
에티오피아
ᄒ
돌릴
로열티
수영복
황영
레이커스
구조대
또다른
성공회
주소지
주무관
##bps
네거티브
저울
황보
goodchang
##국수
##콰도르
##브로
충무로
기울일
아이러
상암
##대환
돌이켜
여겨졌
##리거
번쩍
소프라노
향방
크라운
전범
혼조세
망신
다거나
사무처
사회학
아쉬워
##모바일
제갈수만
미쓰비시
알아본다
020
信
제패
발단
최태원
김춘
정치학
2021
복안
봉중근
복당
신드
망설이
김태만
어이없
##교육지원청
거행
삼일
양동근
조현철
인디애나
수기
요직
민노
각성
##드기
상체
jgsm
대학원생
신사동
방증
개소식
오메가
##무늬
지단
브로드밴드
파이낸셜타임스
판명
양정
귀촌
지회
##의대
##일스
러시
목돈
호국
전환점
부대변인
##악기
지원책
##아카데미
퇴직자
복면가왕
비엔날레
나인
마칠
사장단
이덕
완구
다스리
時
##필름
교외
유종
항변
##타나
떨치
차범근
정보통신부
kangse
에콰도르
심근
빠진다
패치
축구단
서리
다간
내무부
기틀
큐브
데니스
국민연금
##시아드
오하이
니코
근무자
나타낸다
사절단
한의사
주정
휴지
##인트호벤
블레어
확인서
에인
여간
##ated
기획자
대등
수작
수성구
정근우
회의록
상쾌
추인
출근길
하정우
1944
터전
SDS
최용수
##장학
깬
피노
제너럴
달인
라파
임야
김인식
세습
##북부
##럴드
부원장
더그
UC
결속
슈가
캐디
메타
져서
성시경
샌더스
ktman
청자
문영
본드
560
타이완
국민건강
선우
##져스
##막염
괜히
군비
초심
반주
액티브
외제
##바키아
마닐라
태운
##인다는
짤
일과
당무
무협
증산
두드러진
256
언결
고군
안내문
##갱이
##법안
배지
암기
연평균
이승훈
옥시
슈트
용접
펀더
폭동
두세
혜성
상선
기다릴
독일어
다급
해병
460
개최국
##계획
정사
한경
을지로
빠져나갔
官
##인사
forget
트윗
주효
리허
범하
셔야
광고물
사슬
530
도화
미러
설욕
명문대
명지대
오리엔
훤
##문화예술회관
결여
168
당권
탄두
소정
영서
간암
음색
지나간
북유럽
DMB
Res
앞당기
자가용
화고
주어졌
##항만
튀니지
수변
정맥
쿠션
열도
뺐
전학
##chn
도축
예결위
태종
미래에셋증권
경화
불식
신중히
수혈
충칭
원도
몬트리
청원군
세리머니
##에버
##클로
쓰러졌
준공식
有
##진이
메디컬
오하이오
ironn
형광
##레븐
유배
지치
전국경제인연합회
샤프
하산
순발력
원한다면
신고자
등산로
헌장
애호가
##마스터
김신욱
칵테일
##브러
혜리
필사
협치
##카라
봉합
교차로
##책점
can
아냐
작업장
일용
기념회
바구니
보여왔
AMD
##쿠라
선취점
마땅히
##전국
버려진
허정무
여겨진다
골격
국립과학
김숙
임정
##MCA
##und
구례
어처
외채
BSI
##ret
하나대투증권
국립대
왕세자
버려야
호위
민정당
쿤
배석
빈티지
저택
더한다
생가
##림동
헤아
숯
피살
응시자
김진표
송일국
얕
##클래스
논현동
지양
디비전
어처구니
탐욕
비약
안부
##신도시
안중근
##모터
同
申
양당
큼
##세훈
아수
##정책연구원
知
북한산
백석
속보
북상
열창
김희선
펀더멘
유순
##백스
최수
jhc
알고
고압
레일
선수촌
성장기
##소닉
로울
주안
야영
쪽지
이륙
경호원
앞장섰
트리오
ESPN
펀드매니저
이토
수혜자
승부차기
중용
테두리
사르코지
으냐
종래
나폴레
떨리
에도
오닐
앞서가
메인보드
##kime
한마디
신년사
##호준
예스
##led
닥치
##수단
156
타파
인과
조찬
알짜
연시
채점
##아슬
분만
월등히
SE
사행
모간
변해정
##uy
핸드백
생동
금전운
##air
권력자
막혔
제제
고운
얽매
사정관
고등어
너비
더미
손녀
김석훈
충청북도
390
짱
여고생
색감
에비
신대
되살리
정통부
IAEA
뒤처
멧
상쇄
양현석
jikime
##플랜
태광
동학
##ther
이어폰
##거장
근속
뉴욕주
慶
규약
옥천군
##공고
밑거름
브이
승화
구가
내재
##라치
##인력
담뱃값
돌려보
대관령
1939
교습
소상공
습기
투숙
淸
##ited
##원인
차우
##ven
근교
한진중공업
연회
but
##가슴
##육상
##pyun
인디언
어마어마
자력
일어서
끌어안
매사추세츠
댔
희비
##ister
파라과이
만든다는
시마
몬트리올
스케일
상조
아슬아슬
##달래
##성훈
##둘기
하우
실크로드
갈래
모하
NT
五
국부
국과
들인
오영
피로감
hjpyun
민박
year
PEF
대웅
울렸
나폴레옹
문화예술
판세
스리랑카
지킴이
가야금
세네
##book
로저
##돌프
골수
스타킹
트로이
반죽
분전
진가
관직
최홍
히든싱어
성행
메이지
팀워크
흘러나오
조급
흔쾌히
최문
유통업
밀레니엄
440
끝난다
축전
송출
겸직
지도력
끼얹
중의원
서울경찰청
살아갈
디펜
이승우
희석
민노당
생명력
응징
##래스카
김장훈
삼척시
sc
본국
157
친하
부풀려
氣
조달청
인포
##미트
학내
##커니즘
혈세
분투
손잡이
신드롬
##플로
en
한산
일단락
외지
030
##넌트
멘트
시향
돌린
빙하
진급
z
감원
거르
원할
해이
부득이
##menot
백운
##티넨탈
떡볶이
∙
죽여
온전
수문
어머
쿠키
##던스
슐
예리
무릅쓰
forgetmenot
깐
찻
榮
##oci
프린팅
신봉
뚱
외장
##모로
일밤
오디
탄수
뒤졌
소견
박빙
번가
북서쪽
지정학
능선
안간
사다리
골망
살아왔
투자처
노회
이종걸
승부처
##테마
콘솔
부가가치
성패
부조리
이즈
제게
재보선
경작
예절
스팀
개그우먼
뤼
늘어놓
##궐기
선주
##은편
신한지주
우버
수줍
김범수
배가
주영
떠넘기
국민안전처
퀄컴
우표
##아트홀
글러브
길목
더듬
##ors
성씨
조력
아이러니
서신
시초
준설
알고리즘
포항제철
듬뿍
포르노
박미
그려져
그리워
된다며
다단
이도
##국당
일렉트로
변혁
사립대
##사이클
구치소
보인다는
##우면서
##체대
##lic
송중기
이운
흘린
정중
백영미
박람
레인지
옥스
김혜수
##여름
독수리
사슴
환한
칼럼니스트
밝힌다
소지자
투지
착취
박주연
##렌즈
##호흡
BIS
이렇게
뒤섞
열혈
패딩
깜찍
육사
합하
정우성
##카와
쏟아
##인증
이낙
이사국
아메리칸리그
##신기
신태용
포스팅
선거전
하비
가르쳤
##own
오죽
##ERS
안상수
joins
##루타
냉면
케미
공상
소소
송진우
##링턴
국지
간절히
코카콜라
##관리법
##아니아
비선
사토
의논
힘겨
##갤러리
김승현
정확도
김근태
로얄
아바타
할증
##form
지배력
ace
대한제국
전병헌
종주
컬링
흔드
어수선
##렌스탐
##관념
##차장
후예
보은군
평균자책점
버드
리튬
약혼
##번호
권선
데뷔작
##vent
기자실
분규
막막
박대
포켓몬
백령
1936
##춧가루
쑨
##블릭
구로구
와이번스
곶
대한상
개리
식료품
중환자
MRI
중식
믹
순탄
정예
행안
증평군
소렌스탐
면도
누설
명주
수필
불임
일컬
겸하
강명
예원
고뇌
소말
양분
##ould
TOP
달리기
달릴
정강
패기
정윤회
레슨
‧
##계선
##상환
경각
시종일관
벽지
자아낸다
김기태
##마드
out
안간힘
##성당
피스
호반
브렌
이호준
##루즈
원희
구술
##구름
급등세
태릉
이루어져
조양
종용
540
단발
박효
맞물려
##oung
불어
연연
경영학과
배합
찰리
##플릿
성신
불린
촉매
실생활
##지회
퍼펙트
에반
꿈나무
문제삼
전반전
탄수화물
樂
SG
종단
하청업체
교부금
1588
페르시아
##구요
##TRA
불운
굳혔
회유
투성이
##aster
어벤져스
##일반
이머징
사명감
갈증
귀속
##진보당
주택자
##몰이
해녀
분담금
##아동
##사관학교
궁전
이수지
임플란트
화염
홀딩스
인사동
놓이
진격
김밥
충당금
난사
서두
쌀쌀
조흥
세일즈
잡아냈
롬니
직관
관리법
금천구
영화인
대행사
##총연합회
158
밤샘
##스피어
지스타
##카르타
내진
방만
강병
설리
MIT
맥도날드
짊
선적
CU
VOD
##세종
##xis
애정운
증빙
단종
소공동
##so
낸드
싸울
Sch
##진진
탄광
밑바닥
이재민
어닝
SUN
컴퓨팅
jy
북돋
투사
포천시
熙
고덕
불응
##떨어진
역행
유람선
##jin
후송
차승원
복고
이여
부딪히
건드리
한혜진
백승
김보경
발가락
계도
파스
부가가치세
##DAY
무너뜨리
갈리
권다
패자
##상업
척도
음료수
트렌디
朝
##렁크
쓴소리
레고
예기
해부
##천리
가져와
오스카
정치국
고위직
맹대환
속상
게리
사하
크라이슬러
##르타
##콥터
완수
##본인
정품
##고은
증기
웨이트
떳
오비
주례
편파
지반
##박질
급제
분신
임했
에스비에스
스킨십
발현
써니
쏴
162
난동
위증
정주영
임의로
추진위
유경
1937
내시
입김
##스퀘어
피해액
네이마르
팻
립스틱
갈아입
近
위크
고석중
조조
pjy
개발비
현대제철
##랑스
##일대
도끼
건설업계
빼앗기
##체크
고정관념
워싱턴포스트
##브르
178
##노믹스
걸프
엄선
창업주
그리움
내려간
근소
노량
카레
동교동
자유선
四
향유
시흥시
캔자스
홈구장
##요시
공전
추계
##산업개발
마쳐
맞닿
##교류
파편
1942
짓밟
유상우
580
금정
당사국
시호
도봉구
##해경
급상승
방과후
문화원
비호
높여야
최단
훑
넓혔
어획
컬럼비아
된지
로페
자영업
##미어
성전
경제학과
지구당
카메룬
곤두세우
갈아타
어설
일절
배워야
목조
묘소
김사
정승
손아섭
##크스바겐
사본
돌려받
##따리
김강
내딛
역사관
유타
시픽
안호
피드
한심
직계
샤넬
경영난
##100
NP
서머
질소
##들일
포옹
행정력
졸라
부행장
다한
도깨비
##아트센터
院
한정판
대패
안젤
헷갈
NSC
프리스
주원
3400
周
##통운
자성
##나스
공효진
런칭
파이팅
back
식도
최연
166
USA
##김치
공생
바라볼
IN
과로
발맞
그랜저
미용실
박석민
##적십자사
pra
홈런왕
##ery
이왕
스틱
드리블
은근히
홋카이도
모로코
박준호
경축
미라
워치
글쎄
최창
swryu
서지
스포트라이트
소령
에인절
안행
여중
언뜻
전곡
멀쩡
통할
병무청
켠
트래픽
스탠다드
##ny
나주시
클레이
煥
##만장
주창
사회자
##올리
Dr
벨라
수화
폴라
연평도
인제군
질렀
황석
후면
fl
지독
mdhnews
고로
징역형
月
##타스
발매되
비겼
생산업체
끊겼
이맘
이재준
조인스
프레젠
괴한
야쿠르트
투수진
구요
난제
서현
뛰어올랐
날씬
헐값
말썽
하나같이
치러진다
화이
엔젤
거침없
배영수
##로크
동국
his
스퀘어
박용택
시화
댈러스
##철도공사
쓸모
온스
탈취
캐스터
後
원한
##기상청
나눈다
지어진
청라
캠핑장
##리치
각하
계장
inc
애국가
제빵
수아
##워키
천일
중령
장나라
##베니아
##진아
도급
집적
갑질
제주항공
금주
급선
신빙
단번에
##무사
과속
##vere
진달래
김만
엉망
##머신
만져
싱싱
잔해
칭호
장보
탈루
##인더
굽히
inter
기복
미워
지미
─
렛
하인
예방법
leej
옐런
포대
홍세희
순천시
향응
자유선진당
진하
모터스
##측근
하수도
프로그래밍
손석희
지켜봐
ᄇ
별칭
김상현
도전자
##ident
조우
사과문
육수
보수당
일부분
트레이딩
요일
현정
김광석
신고리
##르바
매서
##플라자
KAI
soph
불면증
음란물
라디오스타
스피드스케이팅
##채널
외우
반쪽
홍역
##민정
##lect
유라시아
주얼리
도무지
##진강
강창
바자
받아들인
행하
##레마
감액
퀵
구길
하강
밀워키
앙상블
##공동모금회
고등학생
합해
아미노
무도
알아볼
kaf
맞은편
살처분
끼쳐
졸음
헬멧
오제일
출세
다지만
##용희
나호
다물
스튜어트
아모레퍼시픽
롤러
##미리
##생물
세비
##방지법
게을
마주치
순천향
맷
졸리
삿포
창시
문병
되새기
이범호
황우석
##시장위원회
앤더슨
석좌
파이터
맞아
힐스테이트
비거리
콩나물
개인기
##자와
기만
레스
##질환
어류
이광수
##기본
구르
원제
한민족
우중
늘려야
얄
##뮤지
탄원
렉서스
실직
하필
커튼
코스트
패스트푸드
일거
편승
세무서
##임즈
##FL
오창
先
##dong
src
이낙연
세계은행
굴복
##베이니아
교통망
국공립
최측근
유모차
땡
##ICE
포워드
독식
등단
영결
자명
격인
폴크스바겐
9800
cont
##인물
클렌징
이반
##극단
경각심
즉흥
무난히
인스턴
종부세
카운터
미켈
혼돈
대대적
지사장
##화가
외인
국민대
통합진보당
문화관광부
거동
##스탠리
절호
죽였
류중일
시발
172
친다
감정가
고베
꺼지
볼리
도르트
##ru
토고
자청
마오쩌
심정수
한바탕
##나비
안과
스테인
슬리
예감
한국무역
kafka
##소자
당협
빈부
악역
졸업식
극명
기네스
템포
##인민
흐른
코트라
정유라
간간
최고위
봉하
소급
니시
##석이
oh
##리드
험난
風
us
드레
##총연맹
흥미진진
매료
세안
YMCA
##슬레
이근홍
fly
느껴질
알파고
마누
폭격기
##국회
2025
매혹
펑크
소고기
sophis
물기
예사
콰
복병
서동
샤이니
根
##시즘
이정희
발등
신한카드
##fer
기술주
哲
전자파
##보험공사
스트리밍
##다리기
##드라마
##가을
백서
##고지
##투자신탁
소말리아
국립과학수사
기로
베풂
첼로
인덱스
연속골
예정지
즐긴다
낙엽
애용
들끓
##차이나
정창오
빔
양재동
보루
하노이
##ton
출범식
Ed
전관
챔프
철도역
##인원
승복
포문
브로드웨이
능숙
백미
친해
jco
불러일으켰
九
디딤
080
노폐물
꼭대기
알렉산드
농림수산식품부
인적
이르러
##목항
즐거워
국내선
##부림
##wls
여긴
정옥
연한
완파
통용
볼카운트
##실리
겸허
항성
夫
##파이낸
205
##oll
증발
연가
교두
도르트문트
##시설
교리
칼날
터트리
떨쳐
로워
Love
숙여
신재
블레이드
바비큐
EPL
비둘기
타계
ash
밀려났
면밀
애프터
향년
테러범
##irst
인천아시안게임
##때로
##jee
뿌린
시에
##HE
김종훈
수온
##SA
廣
者
##근영
jj
크롬
포커스
WP
방파
피켓
실거래
십자가
하이원
代
산업자원부
승합
배상현
퉁
WA
띄워
팝업
플래닛
유스
일출
182
트라우마
면책
췌
##ution
##경북
##비트
피임
##경기연맹
각색
시라
전권
##운영
몰릴
어려우
충청도
해본다
여단
이용규
praxis
펜실베이니아
산골
취해야
트렁크
객원
레드삭스
캐머
습니다만
단수
・
정책실장
##스트림
가평군
가늘
김지은
##유치
도의
깨달음
하마스
202
시몬
아군
창사
한대
관리인
##리츠
도요
정취
와이드
평창군
1938
##결제
대축
이월
명곡
생보
설전
마오쩌둥
오성
이찬
세종로
가점
한국개발연구원
백색
초원
POP
뒤흔들
원활히
##iny
등대
드라
지역주의
웨인
두산중공업
래미안
##MP
불순
브래드
김경호
총알
상수
원론
넘쳐나
보따리
김택
분뇨
게이밍
##OT
스팸
##에트
名
##남동
애국심
탭
錫
##치킨
추진단
##iness
##사르
하워드
장시
뒤따라
##ittle
숙종
따라야
Or
펫
메밀
2900
웨이브
##창단
파국
개탄
화천군
끊기
성황리
휩싸인
역풍
병살타
폭력배
녹조
공모가
임대차
미니홈
광주광역시
##진로
소방차
감춰
김나
자평
때려냈
정치민주연합
개강
계몽
발짝
장구
유임
##천면
강승
구운
당도
실존
크레이
자동차세
나위
장윤정
##익스피어
177
기약
날카롭
법조인
CR
매케인
미나
종교인
인내심
안성맞춤
習
그해
썰매
앙리
Ph
##노바
일몰
풍광
권상우
##ng
드로
재촉
찾아다니
느니
실탄
제보자
김미현
장로
피카
국무총리실
광고주
반짝이
남방
떳떳
될수록
진입로
동대문구
##허브
물동
경수로
식감
##onent
KTB
큰술
3700
빠짐없이
기와
열병
517
발자국
숙명여대
빛깔
제리
공모주
클라이
브러
who
미끼
파전
졸속
황후
총각
떠오른다
채식
김정훈
못박
의중
진중
릭
오븐
한적
투자비
페라리
허덕이
국립공원
놓쳐
드러낸다
골다
체리
##어진다
여과
##외고
맴돌
창건
##처벌법
1943
君
##신용
바티칸
면면
##복지관
창피
장본인
반항
가릴
재가
무당
김유정
물갈이
식약청
은혜
쉐보레
전유
모독
강북구
귀금속
올랑드
테슬라
패해
예비역
유혈
ashley
저질러
도도
배설
으라는
인삼공사
귀추
장민
##봐도
교두보
뜬다
김재영
인도주의
##총련
제물
nhy
달라붙
벌여왔
받침
벡스코
꺼려
경이
산발
전미
##스코트
걸스데이
국조
라는데
항공권
kykoo
속담
수업료
이질
통통
WW
저온
부평구
방공
청하
뺑
파랑
빅스
총력전
전할
□
源
인턴십
오픈마켓
##런티
##무대
찾아냈
##얏트
##큐브
김순
페달
전해져
##행동
경의선
짝퉁
내려야
헛스윙
미역
옮겨져
위자료
康
둔갑
월성
등산객
고참
수난
현대오일
빗발
테이크
##베이스볼
마인
숙청
제수
지구대
##제스
##하모
만취
피플
거느리
정우택
##심리
거처
홀리
마르티
##row
토착
긋
힘찬
교관
키움증권
조석
정해졌
두들
pjh
장원준
나호용
섣불리
포브스
헤어진
##LR
상하이종합
소녀상
4200
점대
이겨야
전문업체
하승진
府
슬기
할배
py
참의원
설렘
##가정
펴냄
단양군
바로가
와이어
체증
따졌
연명
##레즈
난색
통했
당한다
원희룡
빼앗긴
한국말
ᄌ
현대오일뱅크
리즈
스포츠카
매점
헬리콥터
##전남
##권익
##ings
욱
스페인어
꺾이
열전
와일드카드
둥글
회차
교부세
스탠퍼드
jpg
별자리
피에르
##유지
더더
##기준법
베니스
또렷
헤비
##대책
##arg
유휴
167
司
구정
최진실
were
바스
위약
채울
연구회
피싱
전해진
이혜원
소셜커머스
소실
조별리그
푸르지오
정진석
재팬
나폴리
유아인
광부
자태
금통위
진두
하리
나지
시추
레퍼
##비엔날레
##IB
가왕
앞세우
팽목항
KOTRA
게르
신안군
단상
돌진
##금지법
정선군
face
濟
실외
##레이즈
모여들
갈렸
우성
시켜서
안종범
침구
바레인
##산림
터트렸
프로덕션
도수
한순간
##쟁이
덜미
걸작
임차인
자각
세계선수권
##민속
말린
세워졌
스즈키
변기
오현
입항
양조
재위
세브란스
규율
듀엣
##마케팅
자바
펴냈
黨
1905
공허
서진
세세
윤난
##data
연사
회자
치하
##yche
설령
평지
재빨리
억원
세속
하이드
파우더
파일럿
비지
미니홈피
응수
유통망
멈춘
측량
혼동
ISO
종아리
##호수
SUNDAY
##인수
생김
텍사스주
금호아시아
component
회선
흠집
안정세
1932
보이스피
잠잠
잡화
##공무원
매립지
송강호
결석
네일
유업
##주현
##oup
교시
암흑
車
차태현
어우러지
BT
나타낼
발신
황태자
숨통
김경목
보이스피싱
오동현
달서구
앞선다
하모니
투톱
세네갈
양식장
##엔드
마케
튜닝
충남대
자급
죄책
불쾌감
얌
##자유구역
조용필
귀향
##소송
대기실
##곡히
##산업진흥원
섭취량
내연
튜브
행안부
##운데이션
##티콘
전류
브라운관
##바인
고삐
마마
산둥
EF
일주
##케이드
항공모
줄다리기
프랑수아
특산품
외로운
玉
##ject
압구정동
##그마
af
건너편
신동석
전도연
##ble
사칭
메커니즘
뱃살
무서워
##슬기
청룡
##린트
##트럼
신데렐라
환희
people
164
구매력
구자철
쌍용자동차
브레인
어울림
버그
근로기준법
##카펫
꼭지
불쌍
고객사
레이블
이종욱
짐승
슬라
팽배
서병
수긍
버라이어티
국제올림픽위원회
재청
차상위
유성구
베니
축출
솔로포
##ron
공급자
문과
밝혀냈
송전탑
데스크톱
떠들썩
System
전야
반향
받들
조감도
단맛
청정기
##회전
odong
##hs
기대주
샵
팟
정유사
끓이
조병
##행정부
##가요
나홀
현란
##윤아
줘서
피닉스
독일인
변할
송민
유니버설
요즈
아리아
경찰서장
군복
건강운
데려가
딜레마
오연
한통
의왕시
다이어리
##IL
초미
수출입은행
##공연
##국립공원
잠적
차베스
부산은행
눕
##르담
워터파크
팬클럽
about
대강
##섬유
htmlphoto
親
이발
질감
컴투스
mmdata
신지애
##먹이
죽인
어울릴
갈망
엎드
명암
부피
진안
##유키
뻔한
김영준
원세훈
초소
김준수
뉴시스헬스
김동수
밋
##시울
##인협회
수하
한수
청해진
4968
富
##유기
수여식
##혈관
덕목
마스
명작
사서
리빙
중앙회
유흥업소
저스틴
전언
##inon
상영관
놓칠
망하
매회
왕래
고단
박힌
204
소셜미디어
모피
승제
영아
카톡
커녕
얻어맞
참가국
자손
왓슨
##국악원
方
산천
셰익스피어
##의정
예시
##bs
治
노블
반공
숨져
이북
비밀리
해협
환급금
리커
마흔
배재
낭패
김태호
청량리
##대구
##스틸
영정
##간대
##거린다
추도
기여도
##하드
에이핑크
Cor
##ull
##모터스
도면
콕
##볼루션
애경
애덤
어려워졌
디지
눈시울
액자
풍수
히어로
에로
노숙자
캐머런
內
자카르타
##칼라
럭키
진성
쿠페
테너
알아봤
명가
끈질긴
##캉스
숙였
4656
모션
벤처기업
##문제
연타
흐려
백지영
버크
김용덕
난징
판권
쏠린다
의료법
##킨슨
양길
임종명
한국교육
##마당
최루
##품질
##dex
건드
딱지
부식
##view
비스트
파나마
의견서
탬
##애리
틸러
명물
일으킨다
한주
혼신
##평생
조선중앙통신
##노인
갈릴
투합
##보수
피드백
두근
ero
##과세
빡
사스
0204
##순위
MT
##슐린
절전
노회찬
##경마
볼보
임관
문호
동성애자
초등학생
봉기
식기
유이
국립극장
괴리
피파
한영
조성민
권순
부딪혀
1914
프로리그
GC
숙이
레즈
##슬로
티파니
플래그
웨어러블
萬
##택시
합천
현혹
네트웍스
기우
##하이머
딱히
##ates
보양
쓰촨
이인준
대한적십자사
비웃
하지
kmk
순자산
유세진
정거장
계보
마곡
원예
평온
펀딩
KLPGA
부영
카이로
중소기업중앙회
계명대
윤동
##전력
특조
제창
해트
아이슬
조선업
판매자
깍
라벨
신조어
신화통신
납품업체
익스프레스
##로니
강동원
고모
사활
거듭날
##더기
실화
우동
김진우
빈자리
감미
163
한국예술
연호
지은
처절
鎭
망각
백작
상병
김도훈
내로라
perse
##me
굴뚝
모나코
중수부
##치오
가로등
짝사랑
전거래
장차
포구
1929
콜라보레이션
스펙트럼
의령
헤드폰
4300
뉴스룸
##tpwls
dbtpwls
과천시
개의
jmstal
부연
국민건강보험공단
##소문
##앤드
모란
살펴봤
##운동연합
검은
불태
기저귀
고마워
남아프리카공화국
조서
박재홍
선례
앤서
##ough
ijo
木
##관련
OCI
지름길
홈런포
사구
덕수궁
##종금
속공
타락
상담원
쌍방울
당나라
##그라운드
자철
##라이더
틸러슨
머니투데이방송
천호
es
별관
정두
팡
거포
추성훈
甲
독선
마그네
블랙홀
남조선
닐슨코리아
##북면
러셀
ijoinon
젬
뒤이
윤기
여실히
구용희
무인기
박연
비행장
##psyche
제시문
1933
##emedia
월드베이스볼
RF
등용
##작가
극비
최광
맛봤
머문
방정식
벌어들인
코스콤
persevere
##르르
박범
시행자
4400
다이노스
##LC
lovelypsyche
##인재
절세
영진
쟁취
전세금
자갈
##추진위원회
자화
싸늘
오수
##하모닉
엠블
시제품
온누리
지나갔
더그아웃
유부
송승헌
##태인
가도
점하
직시
장판
물동량
조사위
부턴
분대
##clee
625
성형외과
가곡
완봉
윤난슬
조명휘
조사관
친일파
현미
공부방
전현무
경원
한남동
매실
체벌
단과
추론
기념비
joemedia
때때로
they
470
분시황
감산
수트
##발레
희곡
장자
추천주
##arm
프리메라
호실
당규
몰수
마피아
이한구
항공모함
골랐
##스테이션
연꽃
영지
넘겨받
영사관
비평가
176
차갑
##은기자
yns
도리어
수가
아사다
cafe
들렀
##주의보
161
애견
던진다
풀렸
new
##민족
##파스
포도주
라우
수렁
점수차
증서
##그림
포근
art
여태
로저스
경실련
굶주
살충제
독신
주미
##조정실장
달려들
충전기
##에이터
거래처
에디터
라틴어
EV
지낼
##의약
원도심
일본은행
민물
김우빈
김이
다독
CBT
뜨거워
인슐린
##자금법
넥스트
1225
석학
ppm
소나타
적색
주루
##베네
루키
휴양림
##uro
문어
프로토
꿨
덕담
##케이블
다분
##워터
민원실
설명서
헌납
후반전
민법
원색
일평균
삼계
노량진
혁신안
##ush
떠받
미백
사병
郞
특정인
똑바로
박윤
명나라
1918
후견
##선지
라식
##공산
가가
벌어져
##껑충
퇴계
벼슬
비대위
솔로몬
##캐롤라이나
감내
Univers
##아나
혈전
여러모로
##뛰기
방점
화합물
결승선
펼쳐져
옥스퍼드
안전행정부
레닌
매매가
모조리
새겨져
jb
수력
영산강
우원
##bin
배꼽
장동력
##석유화학
RA
수신료
바이올리
브리티시
블로거
##공예
기판
##LO
느닷
프러
장려상
미뤘
최종일
매화
##워스
친목
활자
추가골
선미
아주머니
##구조
대지진
##ao
SNL
이준석
비엔
먹방
췌장
PT
##ium
서건
쟁의
##특파원
이기주의
한국소비
난립
착하
기뻐했
도운
견조
활로
159
##뉴타운
구입비
월마트
수구
슬퍼
보스니아
급행
펭
국과수
고든
제방
##럴림픽
186
##선언
##례문
ssy
관현
콘스탄
바이올리니스트
ARS
금융주
큐레이터
##주의료
이토록
대물
해외파
유상철
적나라
에는
야구단
정치자금법
냉소
정력
##헤드
농특
어떡
철근
ATM
이리저리
쏠림
死
백조
교황청
빽
산다는
논하
갱년기
밀양시
##농민
약제
##reen
원유철
##피부
##세프
가래
귀하
##어터
불러올
미덕
성품
##컴퓨
상파
풀린
##ific
배급사
##그로
유희연
중환자실
최지
넘겨졌
작업실
항암제
되돌아보
하니
일동
아우크스
풀어내
모레
초코
오노
각축
자크
##ient
1935
선량
공급량
Wi
돈독
황인
##규민
셰일
커피숍
발맞춰
쌍꺼풀
완제품
평촌
##차대전
ssyoo
속마음
귀순
내공
##산맥
무비
파운데이션
##여중
##미국
qu
설마
이충
포유
하의
##일본
화단
기치
선구자
섬진강
귤
##다툼
잠겨
아사드
허리케인
내버
밍
은신
키프
끝내기
트레일러
감회
개항
部
하동군
꽃게
냉철
순진
KR
붕어
##홍보
##속구
유순상
개연
파벌
수혜주
희생양
유급
국방위
방광
둘러싸여
매끈
미제
휘트
무더운
지망생
##마침
##카쿠
루프
만수
항모
##간접
맥아
##매기
그로
우편물
seoul
입영
##산단
탐정
견과
멧돼지
콜라겐
합니까
상담실
궁궐
미키
기공식
안호균
움직인다
녹록
##온천
야망
출하량
매끄럽
기보
흑색
붙여진
자메이
알래스카
##린다고
서늘
##도현
##outh
효용
분수령
전공자
고음
홍종
흔치
관대
##각형
꾸렸
660
나우
주포
##손가락
노약자
최현석
##에이티브
메워
악명
의료원
단열
비참
팬티
愛
비기
야경
행세
고소장
동양인
혈통
굴곡
박완
선주자
aT
목표치
우상호
아이슬란드
##준희
NO
테리
노랑
자메이카
중개업소
##호스
##min
행인
향연
자족
##소매
선서
가용
오보
洙
TA
理
뿌렸
폐허
샤오미
통쾌
피에
BBK
배상금
빅딜
루비
슬롯
완강
##디자이너
佛
##야드
두어
수두
비롯하여
잔소리
부풀리
work
교향악단
위문
183
프로페
정위
##루프
도배
신효
지원서
쓰리
리모컨
테임즈
##로비
##타니
ahk
니혼게이
거북이
두자
외도
부러워
뱉
##다비
##알라
##희망
버틸
김진태
중개사
고승
깨우
독단
생동감
콤팩트
##FF
약초
옐로
에인절스
균일
라던
농경지
헥
메트
함평
174
손승
이병찬
음대
##챔피언십
아우크스부르크
지울
내려갈
다단계
##보우
밑도
지참
에스엠
경리
출연금
똘똘
준하
##box
이종구
초저
피어
동해시
##벌리
다가구
선풍기
레퍼토리
사신
콩고
##납니다
多
애드
치고
모성
상록
야근
풀어
모여서
스틸러스
서건창
##출산
일신
세종대왕
남서쪽
미카
자루
##소재
more
##oney
김현정
플래카드
원외
Ass
정홍
김희애
##관리공사
ohjt
필수품
##다닌
오열
##더니
두르
베이지
생겨난
운전석
경계선
망막
신승훈
조선대
##실업
선곡
점치
world
데얀
오승
때마침
詩
시모
핸디
한석
잡아당
원성
해조
해직
허준
QPR
가까웠
어쩌다
##총회
통념
구룡
설경
##프라임
001
알아내
yjjs
정돈
미아
공고히
마법사
아쉬워했
휘둘렀
워커힐
비하인드
네이처
인수전
##OM
##동민
##실록
갇힌
인스턴트
었었
눈동자
스카프
무드
성역
박지은
보기
정월
203
4600
근심
옆구리
합성어
잤
남길
완결
동시간대
롯데건설
과민
킹스
샤를
매리
변조
사카
후반부
##하위
문란
##usiness
##공개시장위원회
오크
빅토르
결손
골인
북제
자유당
중화민국
금호아시아나
힘내
등장인물
손민
키드
too
제스처
최고점
피부과
鉉
기본법
스테이
퍼센트
순교
자라나
##인상
꿰뚫
편히
쉽사리
자물가
##네트웍스
나영
애절
호텔신라
마중
양영
아미노산
원빈
도망가
키트
##센서스
##린치
위즈
千
강보합
다변화
바캉스
한국가스
윔
使
숟
##산리
낙천
계올림픽
도이
메이플
태화강
레드카펫
껑충
##anna
서클
더더욱
결의문
##초리
서유럽
겸한
##사체
##드레스
410
탑승객
레버쿠젠
인색
내려다보
글렌
다가섰
이복
##조림
MERS
체구
Inc
전기료
페트
프런트
雲
마티
선입견
렌탈
수요예
이수근
하구
인천항
##확률
고착
세계사
1925
캣
복통
아지
교육자
코너킥
##won
over
얼핏
채찍
207
취약점
환송
찐
티아라
二
만사
쑥스
은상
덩크
빛났
새로이
스완지시티
끄덕
곤욕
8800
연작
잠금
플라워
##이스트
들어줬
사직구장
자유민주주의
VS
니혼게이자이
헤라
050
169
##가시
유승준
레버리지
금메달리스트
##소방서
납북
노바
순경
대테러
변호인단
##유업
기염
김부겸
일색
##mail
박유천
賢
##뜨릴
노면
동그
god
심할
비키니
줄리아
敎
새기
무게감
##uk
려니
김희정
운영위
순직
전자책
je
캡틴
PV
##스카이
##큘럼
노릴
권리금
노랫
베란다
항산화
악당
관리사
베네치아
##인터내셔널
QE
방호
회견장
죄질
코인
##GM
##모르
믿기
부쳐
산유국
게을리
##영준
스노우
두드러진다
비켜
젤리
농협은행
더군다나
★★
숙지
치러졌
허공
올바르
##성대
입혀
양산시
역경
천적
양길모
面
시료
##very
아스날
##과점
퍼스
피처
강진구
dios
산양
이오
173
접했
특임
화훼
##라시
##iel
가오
옹기
전도사
커리큘럼
뛰쳐
연방공개시장위원회
골치
손정빈
소용돌이
##gl
황폐
융복합
김지민
컷오프
##슬램
장원삼
일깨워
국민권익
AB
박하
전초
이주민
고춧가루
럼
발각
윤희
브루스
근거리
명제
Joh
##항공우주
##사전
뽑히
캔디
굳건히
##피자
요즈음
파헤치
도미니카
##노버
과기
상지
갑상선
다가서
알프스
클라크
분분
연필
내뿜
발포
벵
받아들여야
기혼
일률
끼어들
에게서
##마비
올랜
동일본
##고생
정례회
ᄃ
길가
빈약
적조
양립
천상
송가연
##회계
엔비
풍문
정성훈
광주은행
이라크전
검단
김국
이정재
2050
##살롱
버스터
디플레이션
興
##실천
동강
1926
효도
##미오
글리
복종
판가
국민회의
블라우스
##해상
날치기
박상수
부딪치
##곡리
조은
혁신위
국력
통틀어
앙코르
1928
마하
무등산
##칠성
프라이드
##ale
가로채
##xt
범람
악장
느긋
실격
특설
볼링
gl
교신
선불
껄
쓸데
차마
바라본
주치의
파괴력
##슈퍼
ST
##교육감
백령도
순손실
##레저
배팅
값싼
없앤
##무근
##지웅
##클러
이운재
##초프
정략
宮
640
KEB
김지영
산문
박테리아
김준호
레이크
옵티머스
화교
XX
분통
##럭스
콜드
패셔
코파
하얗
##터치
밀폐
브라우저
밸런
쇼미
bclee
##조각
명량
양가
혼혈
211
##룩스
천혜
화신
죄책감
후드
##컴퓨터
어지럽
곤두박질
##뮬러
##금융공사
식전
화약
광희
##과학관
植
뭇
송신
184
넘어간
시리
수도원
##미남
머금
선종
주조
음식료
정책관
##가게
파월
케인
토탈
소시지
괴담
권태
깔린
아틀레
정준영
체험장
##난방
##혜선
트레킹
잉여
준법
타사
발끈
신간
임신부
엘리엇
본성
석가
삿포로
1934
저수
고현정
부총장
행진곡
빙판
실추
연출자
진도군
##주의료원
##코아
할지라도
##랭크
신음
흔들릴
낙찰가
디딤돌
##컨설
영해
취합
1924
문고
보위
일반부
관청
몽고
피서객
임수
항아리
나선다고
질수록
##창수
능률
달구
도곡동
##플레이어
당구
에스케이텔레콤
읊
##연수원
033
팬미팅
숀
##합창단
동의서
실루
나아질
부러움
##더블
명태
서킷
##바야
교문
##기자기
규슈
송은
팔찌
호도
##빙상
감도
따져봐야
자산가
수선
너스레
펀더멘털
추자
510
독과점
승산
해밀
간통
羅
다나카
이정표
전거래일
松
트와
뗄
디오
좌타자
##MD
##부자
매겨
신구
오감
레포츠
백두대
중기청
일회
1931
##중소
악플
171
자유자재
매니지먼트사
밤낮
제비
귓
자폐
##기본법
존립
##솔루션
##ric
사일
변한다
관방
5200
아기자기
빡빡
ELW
아무렇
약식
투심
##디트
관계인
중앙정보
이뤄냈
아시아태평양
##브레
So
세이부
재적
누그러
##사기
버팀
참작
미하
洞
미납
에어백
##핸드
흐트러
물길
ISU
몸부림
##세일
라덴
하시
녹십자
##버른
평가단
뗀
틀렸
북동부
암환자
깨졌
영통
倍
기장군
한없이
##work
껌
굴착
투자액
모른다고
좌초
콜린
학벌
태어날
컨센서스
##코치
다원
위트
퍼붓
6800
성벽
현무
껴안
발칵
한옥마을
독설
철분
진드기
차단제
투하
휘두
교육생
김제시
숭례문
유벤
차렸
강화도
틱
##상권
독일군
깼
##놀림
##아치
콘서트홀
위계
음직
9935
속수
득실
하태
라스트
디아블로
다잡
조림
Part
##스테이
은데요
악보
윤병
헌금
김태우
치러질
해전
장재혁
병동
천도
포탄
한국학
##연극
영동고속도로
##현대미술관
티샷
##ports
샛
##크로
1917
빨강
##발전연구원
멀리서
손쉬
토했
박정규
롤링
정평
문희상
세모
안이
크리에이티브
##서원
끝낼
리먼
##커뮤니케이션
정훈
##츠키
송유
내버려
서부터
##국토
기립
축제장
##버시
Go
안영
예천
##line
분말
서희
앙겔
장근
관람료
조선총
한진그룹
스며들
베이커리
대종
채비
풍조
EP
함락
도와준다
建
##red
꾸며졌
공갈
##센터장
경제인
예정일
##교원
누이
찾아갔
상수원
안성시
명기
이신
안토니오
##거림
570
##환경연구원
고함
Pe
화정
5600
당명
301
이뤄낸
1004
어드벤처
寶
SPA
보여줘
박희송
웨스턴
사교
070
장단점
질식
걸치
로우
alk
무용단
##사법
상추
유명인
##꺼기
소이
폐광
속사
##누르
말끔히
경기지사
##경색
더디
발레단
쌍방
안지율
괘
##lle
인피니트
##esking
##매일
1923
장혁
상대국
샴페인
##수출
##자원공사
heesking
##그제
발사체
익힌
포철
투신사
##어촌
사조
IMT
App
노점상
무너질
##po
누진
릴리
##하늘
조니
비아냥
유채
##gi
##더라
##여왕
##창업
##창호
##게이머
잡아먹
특조위
外
의용
징벌
판서
편집자주
꼼짝
##oom
맞아떨
밀려나
208
이루어지
삭발
한국여자
Aw
건대
맹타
가즈
##버전
고검
조목
강수윤
회장단
금호타이어
팰리스
##ype
대용
진부
##민석
권다희
방편
현영
롯데면세점
##바나
갖은
parkss
##RE
縣
군용
근사
체급
lst
##먼드
##스파
##텐더
소비에트
##히코
##사업단
士
1908
고이
슬로프
Global
월드베이스볼클래식
동양그룹
##광석
##기획관
문영일
원거리
남단
대구경북
##무책
구부
time
대차
##단다
내놔
노을
더비
##분기점
진경
##진다면
과식
Mic
다이렉트
##야스
폄하
제철소
뎠
금치
한스
이상호
강예원
가천
선처
정론
집밥
황소
##앙스
뒷심
論
##비안
낙지
기관사
미시간
순천만
비워
쫄깃
찾아간
1907
your
기부자
컨트리
##조직법
박경완
블루베리
특단
##go
직설
프리메라리
리디아
##hyej
올랜도
이루어진
이휘
##CN
0121
##던지
동국제
수감자
##테르부르크
jjhyej
네이트
대상지
브리지
##지않
찌푸
충만
雄
상이
유원지
신격
야만
작렬
허약
문안
유니버시아드
실손
도와줄
hg
배성
아주대
장현
진단서
내디
##렌드
##타페
옹진
차주
cmr
1912
방금
실권
발작
##지방법원
멜버른
연설문
전방위
##창민
문수
미로
##프레소
부지사
서울반도체
밀실
##att
공덕
뒷전
붙들
##야구장
ctd
숭실대
한국무역협회
전집
평가원
안타까워
ctdesk
엉터리
shoon
왁
윤진
행해
수습자
일교차
가교
신협
요충
지카
삼청동
공민
비꼬
부렸
완충
움츠
깁
##비슷
살펴본다
액화
피라미
헹
##통수
동사무소
상법
판매액
##토피아
소중히
대한통운
끝없
스톡옵션
과수
전쟁터
##애애
만도
무방
악어
##지아
느려
Is
종량
235
일례
국민체육
212
막아냈
암벽
플러그
공금
228
이구
신보
음악인
매표
##일레븐
토론자
마침표
펄펄
오스만
기타리스트
ysh
이택근
1927
박문
##플레
배반
피신
건축비
TEU
3900
메이저리거
간다고
취업난
기지국
실루엣
빠져나간
LO
산전
출가
서커스
탄식
고려인
일리노이
서프라이즈
국립중앙박물관
반증
1921
급락세
승합차
##부처
민국
프라하
금융투자협회
눈가
부기
시끄럽
김종효
웜
##unt
견주
속수무책
내주
잘생
열대야
쯔
##더미
179
##도시공사
Qu
채굴
어려워질
바빴
중후
JYJ
피부염
벤처캐피탈
定
秀
도쿠
맞불
맞춘다
맨시티
조회수
##we
모면
에어로
##변호
아소
남겨둔
소지섭
3100
야생화
전압
사이먼
치약
고창군
석연
소름
##버님
투자은행
記
라곤
##컨벤션
흐른다
##저것
그지
노비
수놓
휴면
슬로바키아
발바닥
중저가
화기애애
총점
파나소닉
숭배
장승
전영
##ys
타일
휠라
방파제
관동
우왕
리트
펭귄
극소수
부품업체
빈혈
작목
스테이션
유찰
까치
##보감
##천후
빨려
상트
공주시
넘친다
숙면
숭고
책방
##컨트리
방송법
벅스
상파울
연천군
준다면
##아름
은커녕
미연
에미
이조
휴식기
굴지
슬쩍
추스
풋볼
교과목
기본기
신라호텔
병풍
키커
허다
cho
감독관
최창현
팸
다그
빗대
나로
시름
한의원
CSI
영결식
소상공인
##가수
희미
다우지수
보육료
우량주
날렵
댄서
필러
올려야
##대포
##모드
중흥
톈진
블루스
방배
알콜
어뢰
윔블
윤도현
끌어올렸
장녀
KOS
문근영
윤소
181
facebook
##모아
송광
포고
니코틴
성악가
면직
셀러
폐교
화법
##재판소
뒤엎
해트트릭
##증권거래소
일침
알뜰폰
황정민
두텁
버클리
lj
섹터
터득
김두관
정박
앨리스
오기
활기찬
궁지
KIS
돌아가신
來
히메
차우찬
되물
발해
통진당
실력파
하이트진로
통근
##바라기
중앙선거
##스콘
바랄
초속
##업법
엽서
토르
209
살펴본
snow
마카
##아리랑
공산품
옅
젓가락
눈빛
오아
해금
해충
찌꺼기
##영어
도안
hgryu
##기기
##eri
제니퍼
일임
위메이드
한국일보
숍
##어가
내민
아폴
의경
시금치
##팽이
광안
HDD
5800
晋
##달리
어부
급선무
사인회
발렌시아
밸브
세컨드
##기관장
기다림
사랑방
AV
된데
엄태
스타워즈
결점
어린아이
다기
건데요
상명
팔도
part
their
1922
돗
##슈머
달성군
조명규
##가타
괴로워
강수확률
이것저것
620
맞춰야
일베
심리전
##보상
과하
##짜기
허경
교통비
민낯
시급히
손주
이빨
롯데시네마
매립장
둘러싸인
立
선인
이천시
헌화
들이대
관사
알로
이단
215
서기관
##석진
금일
##화장품
찜질방
백과
종착
꽃미남
펑펑
바리스타
봇물
##ator
정무위
중심가
커머스
괄목
굴리
랴오
##사협회
버팀목
나가사키
구마
애기
풀무원
주성
어항
##모터쇼
김진호
문창
배기량
##산업협회
방관
피시
이예슬
항문
##ions
빠뜨리
삼둥이
##ons
조진
접착
노숙인
담수
실력자
유벤투스
오간
천진
박건
공소장
am
돌려주
정민태
재력
작고
징용
버림
지병
거느
나리
찬란
承
월화극
위약금
경치
조중
물리쳤
예금자
##매출
웨이보
##ience
부심
장어
총독
206
없앴
##준다는
지닌다
##토시
대서양
몰아내
산자부
냅
##세브란스
mkcho
반달
원종
##네즈
캐피털
만행
##ling
한다는데
##어질
##운전
뱅킹
버젓
Ste
묵살
정희
##건축
동아대
라지만
도자
들판
경험담
유병재
뻥
독촉
문민
엔드
김관진
맞춰져
알파벳
630
모토로라
##선진
신통
준비생
시당
BNP
##들러
도내
막부
프로게이머
작별
뭉친
수려
신호등
수인
유희관
화웨이
##NK
##대원
답해
로보
세계무역
여객철도
김태형
고척
글귀
윈터
333
##iver
뽀뽀
자오
프로페셔널
하객
구길용
단행본
맞닥
자치부
소개팅
스프레이
順
직경
조선총독부
쇼미더
흥겨운
수류
우러
은행주
좋아할
忠
여중생
요금제
##광고
##델리
##조정실
##넌스
휘청
sue
카니발
추워
##교대
BJ
275
##ility
정부서울
맏형
막중
흐를
빙그레
미룰
상동
Fl
합한
LTV
man
평방
이사진
총무원
드려
시들
박진감
입혔
장성호
코미디언
##바우
비욘
위급
알찬
퍼블리싱
애환
박한이
##젝트
재범
정부서울청사
토사
함안
##군요
##형근
묘미
성관계
울산대
이지스
김흥
베개
특기자
깨진
나성범
##다이오드
승무
쪽방
달아오르
갈무리
하이힐
미진
숙취
연발
노창현
위너
차린
테크닉
##델라
경동
불매
예단
스노보드
드러낼
그랜드슬램
씀
POSCO
마이스터
오락가락
花
##니시
항균
##장어
낱낱
##HC
圖
래리
회의소
Techn
접해
가린다
좌표
##윤리
권투
통감
##jeeq
성인병
이쪽
Nor
권성근
자존감
맞설
호적
들어와서
suejeeq
면하
##레이저
즐긴
부안군
김황
샐러리
的
수목극
정읍시
##천사
리턴
브리핑룸
부치
분위
완투
노상
준장
十
##국세
손호준
원생
후속작
박영수
사격장
스파이더
인부
검정색
팽팽히
뛴다
지도사
식자재
역사학
페더러
장문
##출판사
숟가락
절실히
robin
##보좌
다주택
##월동
한채
따돌렸
심혈관
##골목
스타일리시
룸메이트
해맞이
스콜
초동
지켜온
just
볼리비아
아인슈타인
##비티
빗나
탕감
영종도
##영동
허드
##푸어스
##이슬
키프로스
퐁
사나
현아
村
##고개
되짚
전월세
지에스
省
선심
꾸며진다
짭
##che
찍혀
안배
점막
kjy
유행어
##협약
맹세
삼각형
사단장
##대한
최철
힌두
융통
탄도미사일
틈타
이주영
프랑스인
더욱더
부지런히
##LE
##보육
설악
호암
6309
다이나
한국여성
인상안
##아먹
백분
유정복
변칙
셔터
##각색
게양
선형
씨제이
사실무근
인천시장
공산주의자
가인
마차
네오위즈게임즈
##위생
불미
232
여긴다
환호성
책장
무적
쾌감
경부선
##ave
로그인
Bo
4700
june
##구단
##ute
##조인스
han
이베이
##ye
##고교
##orean
신한국당
타이베이
##경남
만리
연구원장
재정경제부
김완
몰아가
전월대비
##DD
상견
배운다
모빌
胡
현대산업개발
차인
pjk
##팔자
슬로베니아
실소
동시대
장근석
성범죄
center
고선
구획
##도장
득점력
불량자
교직
귀결
박해진
베어벡
메릴린치
선착장
기전
단군
이과
한국타이어
난간
처참
##양동
키워야
##혜원
강속구
5400
역사학자
전일
망고
##대사관
으세요
임해
SMS
##현희
일요
##헤이
문답
쇼미더머니
寧
다가와
성곽
been
독해
자유투
플루토
ING
한윤식
기가바이트
##트레이
회장직
5300
堂
모종
바가지
끌어들여
경남은행
##라호
변종
포크볼
3010
광주전남
had
에이지
China
개진
안대
##테니스
055
교수진
칼리지
원통
물려주
찹
##모습
롯데카드
##conom
철제
##포조선
다해야
현미경
박정현
유니세프
##ned
해일
바젤
토성
梁
양천
이따
미술사
與
##시도
##윤호
좌지우
외환보유
##IV
상납
DSLR
서울올림픽
##물량
버무
식재
암울
횡성군
네트워킹
위드
전우
승강기
오마
##니크
피워
대니얼
적외선
노무라
손예진
취임사
郡
칭송
##암리
목성
스터디
챙겨야
##네임
범실
비친
송영길
찾아온다
주말극
##덜랜드
국가보훈
고고도미사일
배리
왕후
왕족
입회
타차
BBB
공격진
웨일스
쌍용건설
조윤선
뻘
끼니
들여오
극단주의
mu
성유리
추진비
##남면
##탱크
##공학부
싸이월드
카우
등본
비긴
응대
황정음
대손
박중
사적
스냅
자상
심부름
##뜨려
##icle
견인차
본보기
탑승자
Mbps
소회
속편
모서리
이민정
##교수
##학대
##문학상
남상
빌트
악단
통기
dis
명창
프라이버시
거버
흠뻑
중랑구
기이
ksk
돈벌이
초록색
자만
##개미
##타기
DR
얼른
후대
kys
##노리
##일비
성종
흥국생명
##백산
광구
약수
임창정
과음
다문
##투신
스쳐
휘말리
기출
##할린
도사
세원
its
본다는
진통제
팬텀
현기
홍영
제공자
경찰대
앙겔라
셧
양악
일구
젓갈
합의점
크라우드
루시
한샘
니콜라
솔선수
##채권
고부
UBS
발기인
미니앨범
##플래시
680
fe
번졌
열등
kyd
라이더
사각형
##감증
##스님
격추
변별
AG
망언
안전처
느닷없이
216
##경선
##학기
금수
풍습
##사드
렌트
쟁탈
홍천군
황산
부러지
이래서
kydjt
탐지기
솔선수범
망상
##ety
케미칼
팔달
대표직
670
찾아낸
ss
수출국
마스코트
새긴
760
이상택
스타일리스트
강희
자축
무선인터넷
골밑
NL
##쇼핑몰
신일
모아서
지구력
이븐
JA
센텀
영월군
성도
이을
이만수
달달
일차
##안정
##nam
고체
코피
##남북도
University
##무시
끈질기
꿈틀
열의
충치
와이즈
손쉬운
외할
김상곤
가로지르
터무니없
박보영
##골드
##은주
가꿔
비석
##샤오핑
GO
열거
our
알카에다
번져
일변
전래
건가요
올라선
이상득
##미즈
기하학
구리시
7982
##로버
여제
780
에이피
合
벼르
사용처
직불금
##주공
레인보우
적설
송승준
전용기
싸운
부국장
상견례
불로
차의
머지않
안행부
##HS
##메트
버텼
한국야
최저가
고노
랄까
아킬
압둘라
상충
상속세
게임즈
제막
떠오를
외침
모하메드
파리바게
섬뜩
패트릭
##봉산
bb
진땀
##튜디오
참기름
매춘
좌장
two
첨가물
야단
박혜미
##차만
業
어묵
참혹
##마라톤
곧이어
박지윤
창시자
UR
성탄절
호나우두
##딧불
과부
##리니
도가니
##조인스랜드
뭉클
244
서안
베이스볼
##신항
##ck
경기대
메가박스
슬라이딩
Xbox
won
노동법
##멘토
##ams
평가액
시게
싱어송
##추얼
여념
이헌
템플
##룸푸르
실무진
필로폰
끈기
DDR
낸시
利
가한
진원지
국민회
구축함
프로그래머
##현우
##호흡기
제일기획
##총액
응찰
가속도
##벨리
세레
뉴욕시
매서운
본즈
214
건물주
路
버젓이
한국마
##인자
마야
메운
과오
로웠
화목
경기당
know
토이
##러스트
못해서
충북대
수권
김진수
ᄀ씨
림프
보신
내세울
수학자
행위자
농어업
부름
Net
서인국
##함께
유키
보좌진
해고자
뺑소니
낱말
먼바다
무르익
로프
명랑
쏠쏠
##좌석
알츠
누군지
##제작
RP
연마
수목원
말다툼
현대아산
여도
채광
사계절
통신업
교무
물들
245
김영환
딩
##우유
부침
사생
낸다는
수사국
슈가맨
융성
##런치
고지서
마크롱
눈매
갈아치웠
삼성경제연구소
守
집념
급박
에스티
영양분
세계무역기구
##솥밥
안일
왕가
所
MMF
##힐스
어때
케이트
야전
덩샤오핑
##득실
GK
한예슬
##운틴
##보좌관
낱낱이
로망
온정
협회장
기린
김양수
대구은행
星
유해진
Day
가을철
짜임새
##htan
진에어
박혀
대비책
중앙일보조인스랜드
타원
뚱뚱
발사대
루터
북동쪽
정두언
서울지방
금오
백발
아자
조재현
4900
삼화
판가름
디도스
국민학교
chchtan
##ival
겁니까
정진탄
굴절
속했
윤아
군위
황성
min
김주찬
전위
里
조순
gug
에브리
발톱
세권
##vest
재정부
로버
봉착
자물
730
모아야
큰소리
##칼리
WE
##종합학교
##테크노파크
##바이크
226
커쇼
소풍
차가
##라인드
264
헤딩슛
슬라이드
sd
다이내
수류탄
##고장
데크
jay
##유미
구수
##애니
출렁
관망세
곁들인
##표준
생육
밝혀왔
감사원장
장항
치욕
시스코
##라이드
신효령
##비즈니스
남해군
상팔자
서병수
##컨설팅
우기
도이치
UI
표고
고쳐야
##오토
농정
알츠하이머
황해
##장터
##소송법
공제회
시발점
유권
전열
상고심
acc
★★★
김황식
오로라
한국판
동아제약
모국
미온
物
빨랐
전국구
##상업거래소
960
분당구
##지물
회신
에이미
dawn
되돌리
스텔스
죄인
김난영
미야자키
##동성
중급
조미료
스테로이드
6431
##EZ
김예
막장
솔라
황병
이케아
혹시나
Sup
박홍식
끌어올릴
정부조직법
국립과학수사연구원
##급식
##들레
##코바
시부
역주
직감
군도
셜
콘돔
원사
뒤따르
탬파
물러날
위용
골머리
##장학재단
##빠르
호스트
손꼽힌다
帝
쏠렸
BOJ
대마초
기다린다
##조목
프러포즈
지포스
지저
선반
6685
군락
뽀로
##health
##북스
##bt
민변
방비
##교도소
오산시
이승현
KC
노모
중퇴
게으
까마
로션
맞물리
박주선
##프레스
1904
한선
극성
CNBC
##독립
성모
국립현대미술관
갈대
치달
권익위
붙박이
들어간다고
##pr
라임
아시
알몸
헤엄
김태원
조교사
許
건만
미술가
생활고
##통계
존치
퇴적
229
##잔치
TM
할로
과소
숙식
투영
의료인
프라이빗
##돈나
도선
북송
탄다
페인
국회의사
##대서양
라트
수양
윤정수
朱
안현수
숏
메스
임할
엇갈린다
Do
칭하
랍
분교
미끄러지
아라비아
바쳐
에픽
잡초
기념물
원정대
후원회
##참여
여죄
288
ABS
김동철
경총
리포터
박재원
부사관
동국제강
##게티
격퇴
껍데기
소장품
아랍어
올림피아
감돌
222
##장군
기생충
정옥주
장도
김자
정청
신용도
다가온다
6300
PDA
삼계탕
해바라기
학예
호흡기증후군
퇴색
상파울루
##자루
주눅
이재원
트와이스
인산
하스
7200
국문
대게
히스
이국현
멈출
헬로비전
##덕수
거제시
나올지
의정부시
시무
공문서
노경
CPI
일용직
channa
이안
미남
##콘텐츠진흥원
당락
서스
서울월드컵경기장
박남
구심점
고찰
공방전
作
##세븐
##티코
조셉
헌터
읽힌다
##사이어티
천차만
지날수록
플루토늄
##uri
가발
공성
캐롤
사할린
환절기
299
phs
형사부
산체
Ind
##경제자유구역
부류
매스컴
추수
조정안
체류자
##인턴
조모
##골프장
그친다
백남준
피라미드
황색
213
가져갈
탄핵안
천차만별
외쳐
##사령
##부아르
##ky
##버린
마니
특공대
푸에르
##원동
팔당
쥬얼리
프렌치
진찰
따라오
특례법
##AP
달린다
동절기
저탄소
금할
한국해양
Ag
공공연
요강
약칭
풀려났
##종목
##우라
우천
woo
저널리즘
온화
공예품
부주석
허지웅
490
강화군
아버님
초급
면허증
중론
학습지
##훈장
##휴게
校
##바토
돌변
사천시
위로금
##비난
정치부
하얏트
피오
소년단
제언
캔버스
free
순국
설정액
seun
강보
정적
깨어나
##스테르담
3410
sup
앳
##치락
##크리
엔비디아
피셔
빼앗겼
아부다비
##해영
무신
암석
광기
이부
lgh
군의회
##보존
강일
왕십리
實
자네
프랭클린
튄
##가든
##부동산
데님
중재안
정홍원
뒤쫓
서랍
형벌
바꾼다
보듬
##교직원
##기획단
궈
##퉁이
EXID
징병
세팅
판화
싼타페
##대상
난소
윗선
방언
후한
머뭇
모세
애완견
거지
중문
센카쿠
##IG
空
룩셈
255
남동쪽
어스
해시
온라인상
##비서
이보영
순유출
오재원
요충지
6600
가제
세무사
스포티
##머드
관음
마세요
FTS
탐사선
##채원
조식
지론
##티브이
풋풋
老
##봉근
오클라호
키스신
더불어민주
자칭
김민우
지방채
孝
##부르
지령
등번호
좌월
김혜경
엿보인다
기말
동진
김천시
물방울
##거트
서울지검
La
간략
소탕
하키
회항
win
다이아몬드백스
##작전
왕립
위험도
휴학
빠듯
##네시
정운찬
치어리
교착
미혼모
보임
거니와
맹렬
해봐
글래스
0307
한겨레신문
기막
끝장
브렌트
기압골
결정력
##내려
넘겨진
넥센전
요구르트
프리스타일
튕
본문
이준기
생업
도예
면죄
윤성환
오뚜기
헤어졌
字
세조
그만둔
상주시
##라는
데드
오클라호마
KF
올레드
탄원서
스테인리스
백범
살핀
AOA
남동구
확진자
Sec
크리스티아
경장
고명
프론
서천군
인터넷판
렉스
단호히
##ative
##요한
칼륨
피델
##철강
손민한
##바브
온기
032
유러
690
건의안
임동
팔로
관계사
발하
밝혀질
스몰캡
##토닌
##글리
##카미
남하
갈지
푸조
군포시
##연구소장
결전
##초교
발진
김수영
##아스
벼룩
양문
에이치
정관용
☎
##침체
변방
수족관
서울시립대
넬슨
자문사
국세청장
리어
Bar
역류
직함
마르코
카페베네
루나
근육통
김민희
스파이크
##젠다
걷어
입후보
강단
강동완
FTSE
은행나무
피겨스케이팅
강원대
고시원
김민석
##어린이집
암스테르담
##토니오
외투
하역
대장금
어머님
思
##가중
##기지
##마는
UF
쿠르
she
모리스
반품
탄저
고고학
살림살이
금토
소심
접속자
빈집
##디드
공분
맞받
건져
따질
로라
성조
동식물
당권파
부추겼
대보
보령시
##인천
최고액
한국야쿠르트
##무용
##ize
##ency
북서
석회
수레
윤은혜
1909
jayoo
노랫말
등심
차분히
##light
##미지
감사관
제단
해약
프레드
어종
##하르트
수리비
용산역
싱어송라이터
##ott
엘지전자
말년
청동
백내장
소유진
세워져
농특산물
씽
인정받
전훈
들여놓
박희태
포백
기통
악동
듭니다
윤창
전기전자
조목조목
설교
##나이트
캔자스시티
##하겐
집시
쳐다
포미
서인영
스파르타
숙인
1911
사용하여
젖소
갤럽
유준
동승
외계인
봉제
피노키오
말하
비쳐
501
메리트
판단력
스쿠
장하
쿠퍼
부산물
어조
##바라지
lim
##선안
초년
원광대
ME
가톨릭대
빠져나오
##길동
일군
##슬레이
김무
수조
전출
도농
쇼팽
연해
##관리원
218
246
눈덩이
아케이드
newsishealth
몸소
훈련소
타박
후일
憲
禮
KN
박성현
서산시
범타
##만만
##zi
두껍
넥서스
와우
수비력
펩
TB
##석이조
뒷좌석
##태종
ez
죽전
간간이
안식
짬뽕
겨레
좌지우지
유진투자증권
뵙
##포털
권위자
일석이조
##효과
라파엘
황진
##구치소
저작권
한국예술종합학교
롯데칠성
음질
기록부
##황색
연거
다가갈
등록세
장밋
전립선
블라인드
##appy
제프리
이해도
##공증
유로파
온양
예술단
##효성
국무원
로스트
한부모
오즈
##선거구
생김새
얽매이
##기스
바야
박헌
소띠
귀경
트림
박수진
박진만
최준석
설움
air
꿋
대양
부디
카바
출고가
클러치
예찰
##SE
궁리
토해
호치
덧붙이
어드밴
거머쥔
근거지
김태영
이영자
주호영
##단협
일약
달한
양구군
밋밋
김영광
바우처
뉴욕상업거래소
네모
경제난
근현대
부서장
Life
변함없이
이가
최은
##그라드
염색체
명맥
선포식
메세
배짱
浩
##형사
김재욱
산케이
셸
로렌
순리
쌓였
홍진
든다는
뛰어났
빌려준
수치심
##몬트
웰컴
壽
뻔뻔
제일은행
##호흡기증후군
순화
축산업
##변이
봉황
기프트
아이엠
연구관
킬로미터
##NE
기할
본업
불태우
후진국
굴비
꿋꿋
실익
톱타자
臣
기껏
조나
가려움
신창
젠틀
304
미화원
거버넌스
共
##elf
니콘
오심
재의
##트럭
##cess
광고비
임진강
캐리어
정부세종
덜하
연거푸
대자
산세
유품
윤지
축조
테디
신동주
##교향
나날이
식음료
역세권
소질
칭다오
인피니티
프린스
##iu
전면전
주민등록증
토벌
폭투
##ards
한국체대
빗방울
애썼
염기훈
##야기
김기준
##대학교병원
뺄
##블러
공실
협소
과학고
겟
수그러
##ops
부문장
로빈슨
언십
##리온
나미
구세
꾸며져
케이비
간다면
##연상
##hin
산호
##널스
선실
수군
윤현
세븐일레븐
코소
##피니언
전조
일회용
연아
##깁니다
##휴게소
받아들인다
구주
권고안
복귀전
칸막이
따돌림
암초
하한
7800
끊긴
터프
##라이언스
드라마틱
김희철
메이드
정한다
골든디스크
창덕
배동민
본원
지선
건조증
도시민
眞
고동
대우그룹
흘러나왔
해남군
지그
##끄럼
노안
광택
보험업계
카스트로
피웠
룩셈부르크
##ange
##rain
Market
##유진
신전
개찰
##아프리카
떠도
분쇄
송지효
시달려
최민식
두툼
붐비
가쓰
##보살
조규
해빙
잠재우
파리바게뜨
디너
류형근
수수께
벌려
집니다
머니위크
성신여대
##ND
값비
탄약
##르노
자석
뿌리치
알아차
최문순
##휴양
죄수
집어
민화
속임
여심
7600
플래그십
두리
워런
그래요
##순환도로
신관
내용물
스토리지
##자드
##추럴
피렌
253
guggy
智
세종대
##오름
##팔트
아웅
원청
월정
740
보호법
조리법
銀
아폴로
1080
##리어트
맹비난
지휘부
수프
강태
합헌
##통법
코비
##과정
아데
완판
적군
골다공증
나온다는
로컬푸드
피카소
양강
투런포
##살인
평행
챈
교권
골잡이
호시
판매장
제쳐
직사
헐리
##글러브
게임빌
리오넬
장경
##권리
여소
쾌락
한몫
시그널
방문단
체지방
갑상
전유물
진다고
북대서양
조흥은행
기왕
원불교
풀어놓
연찬
끝없이
국회의사당
나진
맛본
영락
채집
뼈아픈
토미
교통법
의하여
##황후
절규
##환경청
##데일
##질렀
삼호
전모
口
추입
##스코어
세라믹
김익
몬테
케임
김기원
엄정화
##간다는
##그래프
ins
신격호
늦출
880
정대현
닳
개운
넘쳤
적응력
says
알펜
윤형
221
탈락자
틀어막
궂
##페스트
##하시
진갑
##LG
##let
##제지
반값
본의
는다며
만기일
면죄부
파킨슨
관련하여
##워너
뒷문
불쑥
데려다
##경제협력
친필
강명수
이진아
##ily
분발
##ities
카트리
특수부
현대전자
##가공
송원
이방인
서브프라임
##버러
광선
소강
갑작스레
##테크놀로지
별미
김현철
코넥스
해밀턴
표한다
아시아인
##물류
Art
확성기
안쓰
##학습
지긋
토리노
특별시
증감
CMA
국민권익위원회
솎
삼자
입상자
##aj
沈
##시타
##평동
##도니아
철로
##펜하겐
갑니다
구스
238
개헌안
나빠졌
최민수
##파트너스
But
작품상
6200
##II
FS
찹쌀
예비비
팅
등정
##akao
발자취
이지현
주도주
##pect
두산건설
##테니
그러하
김정주
매장량
도라
감점
민병헌
이휘재
수수께끼
벨로
잔존
840
Pre
백남기
오래가
쎄
약재
자퇴
응했
내보낸
출정식
반듯
봉안
점화
해물
최다승
곧잘
오갈
일파
수전
##커버그
단아
울프
##종금증권
6400
두산인프라
ᄆ
수출업체
골득실
325
전세난
한국가스공사
드롭
860
리퍼트
##ision
명복
THE
말미암
브릭스
처방전
여하
##브릿지
233
능력자
타블로
삼성엔지니어링
##스터디
잼
육안
청색
명주소
세미나실
아스팔트
Off
자문단
##밀러
돌봐
슈어
##oot
##드리히
북서부
선덜랜드
묶인
처남
유심히
갈채
##텍사스
엄숙
윤활
남한산성
근혜
285
약체
해설사
록밴드
##ublic
코트디
윤일
생리대
편해
##가르드
6700
공공연히
깃털
서핑
보톡스
화물선
경도
귀빈
##진흥회
##시디
pjw
이학렬
충청권
XP
갈치
논제
부탄
토스
이문세
단초
델타
옴니
둘레길
##산역
투옥
캠벨
봉우리
EB
대통령령
진주의료원
상징물
영화진흥
##나래
태산
내시경
돌연변이
##선수촌
직간접
파트너스
한국국제
심려
안내판
내친
별거
붉은
1906
Serv
토기
중독자
다임
연두
사무직
주방장
어긋난
##왕산
경종
벌칙
소자
피랍
후끈
켜졌
##rist
555
재정난
쭈
리커창
파묻
휴전선
아인트호벤
##현이
김연경
정무부
smister
##미도
조훈
업로드
##만두
##형물
창동
법원장
전기차
후원사
수입액
김충
김화
인큐
QR
마돈나
##테라
8900
적도
어떤지
패인
값비싼
속도감
운동량
Mus
##수목
##제주
가히
중략
꾸밀
라울
주세
어떻게
俊
##드랑이
가벼워
매니어
연수구
기뻤
비씨
모인다
전달식
##방송통신
UP
염경
하급
활황
##캐시
속칭
이철희
걷잡
장준
배너
탈선
##리어스
여교사
해줘서
갖춰진
TC
갈림
마장
스파크
이혜훈
김승연
보약
053
연수생
해안가
감췄
5900
##구이
##펠러
생보사
0505
금천
순유입
주연상
메릴랜드
컨트롤러
At
고칠
정준하
##틸렌
엘피
웹젠
김관용
청해진해운
辛
샅
어젯
누명
##zero
내비치
달려온
조범
교육인
엄태웅
##참모
압박감
봐라
kjh
포메이션
송기
양치
파노
joo
달라이
뚝심
따스
su
낙서
정경호
노역
동치
윤다
라이터
KOSPI
롯데홈쇼핑
##능력
부랴
소라
스쿼
두산인프라코어
##꾸미
오색
진구
##쿠스틱
재소자
고픈
연제
계산서
들어봤
자작곡
살펴야
##배추
카디널스
마르티네스
Ab
SSM
야심차
스나이
정병국
긍지
절절
뒷모습
차기작
##보전
쏠려
식스맨
난처
대합
슈터
용암
대출자
師
##장성
민의
화원
울진군
패트리
부산국제영화제
##만감
자조
##비뉴
급식비
겔
유산소
둔치
힌트
세태
타르
##클리닉
##ding
770
다섯째
에쿠스
마이크론
위령
##함마드
스킨케어
둑
##판매
마모
어긴
자해
상트페
완봉승
##정밀
KD
리투
231
천일염
Euro
두려운
수산업
마담
##와서
오르내
인형극
##개선
##로웠
sj
온수
OEM
대한상의
복근
식비
불감증
꿔
발표문
##노선
윤치
교육법
시음
##하나은행
온두
트인
도망치
한약재
썰렁
##출혈
카프
혼성
대피소
219
##ating
류준
울상
아로마
찬바람
비야
수아레스
퍽
##받이
##VER
##ows
포병
바오로
##스마트
쫓겨나
동의보감
##리버
덮개
북중
##ames
##oss
서울행정
판매고
까르
세트장
코퍼레이션
##카시
배척
출점
엊
쿠팡
##아리움
다주택자
##회복
장석
솔로홈런
난치병
##오위
생년
압록
계셨
시즈
##의실
우열
설경구
體
클리어
정열
끌려갔
난방비
송아지
혹한
car
다고요
한게임
分
圭
미상
##아비
아수라
1895
생도
imzero
덫
##충원
구슬땀
박세웅
쾰
정부세종청사
라그
Best
몽땅
정론관
줄지
중구청
대우자동차
연세대학교
모스
씩씩
弘
##운대
##이노
의협
뉴캐슬
나아졌
의무자
청렴도
담가
John
잡힐
품평
재규어
짜장면
에너지원
노다
수완
윤재
##키즈
섬기
대운하
독대
에셋
푸념
SAT
특검법
끌어올린
##나루
카탈루
정육
휩싸이
윷
맘껏
ISA
번거로움
##하트
매콤
두드려
##매물
벡터
코소보
어야지
코트디부아르
##나인
##이자
연유
227
610
빌리지
경남기업
각양
의미심장
아낌없이
만인
일로
김주혁
슈미트
줄무늬
향한다
##of
알펜시아
부조
써도
연습실
투르크
1913
살수
들여온
선수상
러시아어
홉
##랄라
AL
셋톱
##레인지
##노위
서포
방청객
추천서
다빈
다각도
시의회
그래미
##복지재단
댁
단선
로밍
박서
발찌
##방망이
앤드루
찡
하라
꼬리표
자금력
모건스탠리
두목
미관
볼까
통곡
크리스티아누
##영이
골칫
서성
엑셀
연매출
국가정보원
##형제
말소
비보
의향서
물리학자
알차
꺼낸
##와트
윈드
백사장
피난처
식품의약품안전처
상층
켤
봉인
수갑
##복음
심동
잠입
9600
토플
유승호
으리라는
##러닝
남한강
동떨어진
EM
미취
수액
엄연히
##자니아
##보내
##쓰기
##줘서
##레미
김필
비뇨
살아났
아이팟
將
개천
해둔
app
##애플
##교향악단
정치연합
어쿠스틱
엄벌
조남
jae
보사
전세기
##ote
잠수사
리투아니아
석탑
좌충
고귀
일면
마그네슘
습성
##시험
시노
월동
273
저출산
륜
띄웠
고사하
양띠
테이션
널려
다녀갔
온두라스
무턱
스피어스
금감위
김동욱
##반사
에스컬
윔블던
이시영
다이나믹
##RP
남이
일격
감찰관
밧
국소
농수산
like
가성
유유
252
710
오미자
##안토니오
원폭
휘성
대산
스태
243
송은범
페니
내곡동
조훈현
따라다니
목마
##파이브
##일체
체인점
블록버스터
##리스토
마테
pre
김상수
747
신분당
팰
##람쥐
곶감
닥친
8400
아니한가
##승지
舊
두산그룹
겸용
난폭
삼키
대책반
##PO
IE
성욕
##gram
요양원
기교
##상고
우습
추경안
Cont
動
##민수
프로듀싱
##olution
큽
容
기폭
카네
249
수렵
약효
고증
징검
str
than
드래곤즈
코펜하겐
##뿌리
루이지
##콜리
그램
↓
##종영
고된
유세윤
조계사
##도안
카누
쿼드
볼륨감
친이
조한
우에
정혜
차후
천마
공중파
##아일랜드
##농장
승낙
무심코
##NO
대천
인솔
234
휴게실
What
선지
위스콘
포미닛
베네딕
##velop
##GS
像
정보위
더럽
이태임
철광석
들릴
980
자판기
National
##ICA
가업
다롄
전극
##엔에스
알아듣
무용지물
자며
조양호
자칫하면
불러일으킬
用
양용
마구잡이
통신업체
대방
저승
청취자
중앙선관위
强
반포동
보유액
눈여겨볼
아이언맨
끄집
우석
株
나달
제곱
리오스
매달렸
KPGA
왔었
하방
에르난
차의영
라커
김두현
투구수
##강남
부원
호구
자그마
출품작
폐막식
당파
물감
울분
흐린
간척
안국
추인영
다이내믹
##erm
바친
말라리아
##금고
##에리
##붙이
깜빡
잠든
流
맥아더
목표액
비틀스
##레타
궤적
일성
총경
충정
국가안전
사투
원톱
호송
몰라서
주식회사
솟아
휘두른
##산지
천왕
265
람보
스톰
왕궁
패티
들여와
완도군
큽니다
상트페테르부르크
##사지
조각가
퓨처스
그레이스
장쑤
##가중처벌법
본상
게시글
양육비
##MEX
풍랑
김기현
##는지
민아
##선거법
217
오십
응할
종군
지프
희극
CH
##아이스
이슬람교
서울행정법원
이형택
정의화
패럴림픽
강동완기자
##자위
감명
MSCI
력
선망
티몬
김해공항
반신
흥정
광대역
유엔군
프리드리히
나래
외부인
##NI
수종
확연
들어맞
박상권
방통
색소폰
NATO
범했
조깅
패닉
블랙베리
지탄
정조국
##방크
치타
##기아
상비
없앨
##inyoung
종파
##뮤지컬
피리
물살
재화
제습
063
로페즈
샌안토니오
급물
게임사
분홍색
비춰볼
이지예
유틸리티
한국외대
##gan
풍년
Aut
신뢰감
예식
주워
퇴거
가르칠
갈림길
八
UV
##less
우간다
1899
동률
##aniel
독립운동
부산광역시
고하
축협
위스콘신
지켜냈
포장마차
##앓이
거였
덕성
동파
북촌
223
마해영
글루
누계
용두
590
UFC
달팽이
다툰
두고
청구서
오아시스
안타까워했
American
##eng
가린
뒤통수
남향
변별력
연타석
Korean
험한
배신감
##NT
뽕
##포도
불멸
직물
필하모닉
힉
노영
여성부
호점
CDMA
##웃음
우윤
어워즈
측정기
1915
blog
개띠
늘린다
지팡이
나루
리아
세르게이
기슭
벽산
이희호
충전소
##랑크
##lim
얼짱
정량
쏟아부
한류스타
담요
서세
교보증권
퍼진
카리브
송곳
나선다는
스타뉴스
바통
그리스어
워크래프트
한국항공우주
kyj
전공의
bold
오피니언
##라니
박제
서든
친족
격전지
데이콤
스탠리
나일
떡국
목판
베가
김현주
동북부
##티넘
get
비문
에베
노보
성민
위선
수술비
시그니
대소
우려감
포토존
Comm
##담당
JR
##루기
산실
286
##방재
연화
전등
쿠알라
더라구요
뚫린
바르샤
유나이티
나포
드높
메드
차곡
초순
##야대
##차익
상오
초단
피운
이창우
통칭
##스토크
브라이언트
이언주
커브스
##나르도
Par
우수작
조정석
휘둘러
수속
512
착실히
동계올림픽
급파
수증
조선왕
CL
드로잉
선재
##티크
도호
이승환
##부랴
엊그제
나이스
봅슬레이
한국석유
##가구
##코스터
쓸데없
##zz
##방어
##대군
##way
지민
타도
강행군
##개골
앤서니
Mr
호러
부화
콧물
고유가
##위브
라야
코디네이터
##여진
당적
성취감
8200
weight
다이얼
일깨우
구속력
럭비
지음
주안점
##200
주립
일본전
평화상
숨긴
창호
##탄도미사일
손승락
##일즈
위시
국가보훈처
##누이
개선책
씨티그룹
무예
백의
NIE
신아
둘러본
마인츠
통영시
불스
짭짤
안될
취학
매트리스
펜티
돌이킬
심수
추심
중생
폴더
Jap
아이온
##obile
댜
전석
다라는
유승옥
투척
한테서
비너스
설거지
##리프
##차드
가변
266
각양각색
##스퍼
rec
산티아
알려야
##육성
사다
임채
정설
펠레
도쿄돔
속초시
법제처
어버이날
##iana
day
일변도
점장
시험대
##치산
##그리드
과밀
태반
홍석천
홍진영
##바흐
명료
쾌속
성주군
부랴부랴
百
남포
컬투
파드
기관차
쟁탈전
푸른색
에스프레소
##수염
만물
레몬트리
##가르
##예방
탁자
소생
매수자
##ony
대낮
윤장
305
##의사협회
중소기업진흥공단
曺
##인베스트먼트
##어머니
what
뒷바라지
총학생회
완산
##프리티
메가폰
태안군
홍문종
밸런타인
반월
알람
신바람
통찰력
손맛
줄기차
ᄎ
순대
시오
239
영주시
서둘러야
斗
자필
스캐
케이프
##바디
욕조
포틀랜드
##구멍
##연주
공증
박순
심성
##에이지
場
벗기
털어
272
이타
주승
지명자
##차지
시티즌
겨드랑이
##토건
아닌가요
##uh
브라더스
To
ye
금발
하세
창덕궁
##박자
##세르
딤
##렛대
##차곡
전준
교학사
지저분
호조세
##진흥재단
여소야대
밥솥
아사히신문
아플
더러운
1544
추사
정약
안재욱
iinyoung
경무
리가
하중
랴오닝
자장면
건축사
꾸며진
브릿지
##기술연구원
질러
감사패
골든타임
지방산
대설
로지
급물살
기상대
헌병
무궁무진
익혔
##바라크
##자산운용
##서야
도미노
́
지린
접한다
못한다고
皇
센티
아킬레스
억새
좋은
반딧불
오하이오주
아흐
분당선
물망
김병지
8600
북아일랜드
##AT
꾹
Vo
242
우원식
대통합
##유한
RC
단신
덮친
반겼
##꼬박
격분
유원
Che
김정태
다임러
승부욕
신세경
줄여서
##월일
한국프로
Des
후임자
탬파베이
낮잠
장전
Index
민첩
동질
상각
신춘
칩셋
스톡홀
추모식
한화건설
부단
신천
우후
제쳤
오락실
김성환
레프트
보유세
건양
김복
앙드레
중종
308
외무상
난국
변이
가리켜
이에
##PD
스탬
해리슨
##경주
##의지
김계
태클
김정우
가고
한계선
간파
동동
연민
##vern
귀성객
식용유
분데스리가
가군
대첩
불모
일보
810
실례
순종
우두
전혜정
##mb
신디
父
가운
유괴
효린
##연방
기니
조광래
##둬야
허심
데일리메일
인천광역시
##woo
꺾였
완비
설상가
##EG
에일리
1896
꼬박꼬박
뉴미디어
에밀
옷장
틔
연착륙
##resident
##어택
별반
엄연
지류
테레
파커
ED
오줌
##리스크
고속철
관리소
국민체육진흥공단
점자
##발레단
제이미
디디
러프
실비
율곡
접합
택할
##통장
페넌트
##에버랜드
대영
##ount
MWC
들썩이
##일렉
Can
개관식
눈꺼풀
피렌체
##이센
클레오
미트
왕좌
##유치원
이정수
어업인
연설회
##other
동방신기
갭
단비
랜덤
아성
모릅니다
징검다리
##신고
반역
저버리
무함마드
도태
펜타
茶
鎬
실재
익살
kkw
주택은행
문학관
##부사
박일
쿨링
평의회
##로직
##모집
박봉
수계
퀸즈
의뢰인
##소울
튀어나온
PSV
동창회
뚜렷이
##수소
국론
##와이드
프린스턴
들뜬
죽일
bom
압록강
1894
after
매튜
서스펜
윤병세
찾아올
차곡차곡
##촉진
Af
미륵
한나
스미싱
유제품
이너
##반구
잔재
김영호
안성기
창녕군
살폈
우면
함축
황새
##acho
역효과
##거릴
##잣집
디카
참모총장
위원단
페드로
##체고
##성원
##풍경
태자
041
가로수길
편집국장
남재
##문제연구소
##그때
##orn
구좌
백자
ESS
다비드
단통법
재수생
펜티엄
동두천시
##유도
명당
백마
##눈썹
920
경마장
항공우주
##탄올
층간
매리너스
페어웨이
##팔이
구의
네타
장화
Mon
테크니
알바니아
클로즈
무바라크
##빌라
김새
메웠
스니
김영주
루스벨트
번질
탱고
윗부분
##푸른
덴버
스낵
양안
##보건기구
丁
하숙
##추천위원회
광업
다도
박노
외연
연소득
조원진
##터넷
##포장
꾼다
조련
헤드셋
勳
난입
신민아
러시아인
##와라
노이즈
시미즈
산티아고
까먹
난장
취사
루크
의장단
조그마
봉건
CFO
景
##서린
##처스
바이크
延
어설픈
의정비
4100
##셉션
##페르
##bo
##과학대
##히토
막스
와해
박재범
내막
주중
박삼
시댁
820
이나영
윤태
대부업
마신다
臺
##우돌
##stit
활용하여
##비율
개칭
임업
경련
씌우
울창
제헌
휘하
고발장
##데오
##의금
끈적
펴내
중장비
최홍만
공신력
나눠서
가브리
would
手
프렌즈
치수
투석
한다면서
藤
불똥
순천향대
##티켓
힘쓸
날아갔
입장객
모신
which
##일장
밤중
풍산
아몬드
##eth
이을용
임단협
뉴라이트
##승마
선가
김소연
뇌혈관
리얼미터
##거품
##은하
##줍니다
##두고
한센
##한다면
##공동체
251
다분히
##중소기업
Smart
##얼빈
진흥원
팟캐스트
남달
문산
상소
롤모델
##illion
당찬
항우
도이체
입출금
1916
격한
녹색당
보증서
에프티
##be
##메탈
과표
there
産
간디
구균
붙일
##마땅
고열
꺼져
총영사
에르도안
눈감
구설수
Center
환대
##플릭스
룸살롱
##승인
##uman
거듭났
붙잡혀
7700
좌충우돌
##차트
다년
상투
네이비
휘닉스
발화
함유량
보여진다
서부텍사스
烈
무브
드라기
아이오와
짰
##식스
호모
더없이
중공군
어원
이랬
뒷걸음
6900
言
##맥상
Dis
그랜트
그지없
유연석
BR
동석
세전
곁들이
RT
어째
엠버
유목
##니스타
루돌프
수용자
텐센트
보그
진정서
##WA
공심
정봉
매드
고려대학교
이설
241
유전체
##pi
##공정
##남자
##록스
##jung
##지연
개학
진루
생산직
KING
골몰
삼중
악연
코웨이
##수권
##쳐스
애너
고물
가르친다
프라이머리
박정아
스타덤
##발디
##좌왕
##Com
혼례
##단체장
HMC
남양유업
##티티
사담
성큼
타지
한솥밥
전국교직원
서울지방경찰청
조선사
기묘
##뱅이
##부른
한컴
홍순
늑장
영화진흥위원회
DF
송편
피폭
1577
롯데제과
인베스트먼트
심포니
오타니
파워풀
join
살펴봐야
더샵
성심
연찬회
국립국악원
부종
와야
장쩌
IDC
빌릴
##코스트
경비정
비틀즈
에이션
##러움
發
반목
빈발
급식소
페트로
정려
휩쓴
254
##무스
벅찬
회삿
##수목원
##햄프
평결
훔쳤
##실리콘
##ince
HTC
라쿠
이비
최루탄
##urn
원양
퇴역
물대포
체인지
PDP
보형물
서울시립
박태준
한국전력공사
身
북해
청풍
동주민
레미콘
열심
키친
유무선
알려줬
청소년기
다윈
이사직
줄인다
파스텔
##tsie
훤히
나지완
통조림
불러오
지방비
제독
황홀
옥주현
사그라
수두룩
호명
대구대
돌이켜보
려다가
쌍방향
조성환
α
멤
##행사
##사나이
장타력
가액
낙원
Act
PCS
학습법
위업
세운다
자료실
부끄러움
댄싱
예인
대장주
못마땅
염경엽
리마
##과학고
##터미널
248
##레터
격전
작심
1890
##리산
빨아들
자국민
국민연금공단
레크
로리
육로
박준영
하얼빈
##빙상경기연맹
대망
##erson
크리스털
지청
이병철
트레이더
옮겨가
레반
강해졌
회삿돈
##회원
고수익
보유국
끌어내리
young
tootsie
낙타
유소연
일렉트로닉
井
##펠드
MF
묶음
파멸
팍팍
단시간
퀀
숙고
전소
큰손
우왕좌왕
##agement
송하
하림
민병대
7400
롯데홀딩스
##종환
수공
와도
운석
독서실
7300
트랜스포
jmkim
##타로
봉송
이두
해칠
##비츠
부경대
소매점
일광
전희
황의
장하나
천성
312
남서
배고
채색
정성룡
SR
무학
풀백
송호
합심
##기독교
NFL
홍진호
닝
##ars
거위
교동
잃어버리
##돈다
##일기
최석
박성환
정민철
천안문
LINC
처할
##뿐더러
##에이징
동서양
빼돌려
칠곡군
##플레이스
##문서
대리석
미주리
우윤근
장쩌민
두고두고
##마치
##터슨
시의
##항공대
가려내
의정서
##시민연대
##탄회
린드
사색
점잖
폴로
총괄회장
빅터
##이치로
나빠질
##무기
##컬러
토하
순찰차
에반스
자화상
선급
으레
함박
뜻대로
미뤄졌
포만감
치어리더
심형
잡아가
##ke
##토모
참된
강남점
청신호
엄지손가락
##효주
임명장
유구
반바지
##평등
냉혹
넓힐
준동
마술사
적설량
예찬
읽히
채동욱
EG
가감
가속기
엥
##상회
##스위
VC
오른팔
##복지공단
낭송
출몰
해사
대기자
산체스
허심탄회
부산저축은행
##총사
도립
속셈
월경
傳
##후이
전편
중과
맞춰서
국무조정실
야지
바자회
엎드려
연종영
이윤희
능통
황실
##이야기
끌어올려
이바
현철
jyy
사상가
쿠알라룸푸르
##교실
고흐
어젯밤
##브레인
이치로
늘씬
가스업
범법
처벌법
프랑코
谷
##종일
##lex
사업회
영덕군
화이트삭스
코멘트
##주연
한광
262
302
뉘앙스
힘겨루기
빙수
처진
##바드
커밍
이재영
hacho
돋우
휩싸여
파노라마
서울대공원
##SF
##eep
버마
전함
ETRI
송선
안긴
Group
##rol
휴장
viv
##정수
암각
파종
호사
백두대간
##인즈
공백기
내추럴
박현주
##라이언트
##천하
호통
목청
무속
집전
기념사
쫓아가
롤러코스터
묘하
김기덕
線
셀틱
철조
인천대
274
790
Good
묻힌
자숙
건배
과당
삼림
295
양원
##TR
노른
도희
우먼
타살
우리당
형편없
##레이디
콜레라
마라도나
##ME
청백
타우
거느린
둘러봤
밑그림
인하여
스트라이프
만반
복습
Kakao
EPA
상존
수경
기다린
직영점
리지
유나
Red
##창훈
마우
##리코
##학술
총탄
스테판
아트홀
leejg
##러워
들이닥
예상치
덕택
방명
솔트
조강
코스닥시장
다같이
이수영
포스텍
겨자
이일
심리학자
뻐
##시대
Play
서울지하철
##샤르
모자란
무주군
유럽인
타이트
##지막
부국
철판
##ship
이용대
음해
박종철
정청래
드미
조범현
에스컬레이터
고궁
푸이
관심도
수의사
이재현
프리스케이팅
制
물증
팔라
묻히
서글
척척
데이브
Dream
미움
커미
MTV
兵
빕
##법률
꾀했
김민정
허경환
##현준
DI
섭렵
송수
나뭇가지
JW
육식
##경영자
다릅니다
해리스
5100
형사소송법
교화
속사정
올림푸스
right
力
기단
녹내장
니켈
얽히
픽셀
농축산물
삼성에버랜드
##구르
픽업
263
목표물
7900
검찰총장
간지
거래액
남원시
방사청
창업가
命
순응
신청사
입법부
선한
직렬
챔프전
전횡
판별
gor
##토즈
##ause
다함께
##uck
곤경
리옹
대회장
부끄러워
모술
전치
투르
몰려든
혼탁
보수파
캐서린
캠코더
갑판
##바야시
물거품
그레이트
프랑스군
IV
건보료
군기
냐며
##aut
왕정
국제공항
##중심
현악
277
박한별
두자릿수
긱
깰
歌
선결
엔고
힉스
agent
##RD
##진단
거래세
이하늬
임원진
서울국제
언프리티
들통
사바
형질
##리아노
##디나
##토리코
마이스
가토
응집
##스트롱
##athy
##구비
##창동
정족
남서부
구찌
MICE
##배구
뒤쳐
##oint
237
마케도니아
계상
밀크
증류
기본료
##공인
사익
그럴까
경향신문
##램프
카사
골짜기
스톡홀름
구원파
무상급식
아틀레티코
##제한
소닉
##by
IPS
인심
쾰른
황희
##국사
빌렸
쳐들
교육과
강탈
뽑혀
설현
한재
뒤집어
##연구센터
안중
236
##츠크
오초
수면제
랍니다
보라색
프라이스
PL
납작
농악
버즈
부려
홀대
흡족
김건모
두들겨
옹진군
##부머
목전
배차
초계
830
헤이그
그때그때
목동구장
##하마드
불어나
작업자
商
건널
과업
문무
쿠르드족
North
창비
##토크
근저
스캇
샐러리맨
##소득
기대작
태양열
##fl
끓인
헬싱
bec
일정액
광활
동대
마에
괴롭혔
분계선
##미포조선
##nes
샤라
홍재
061
걸까요
사채업자
\
원대
에스파
낸드플래시
##작년
양상문
두산위브
우즈벡
문형
의장국
련
뮐
인칭
류제국
매표소
##만큼
카펫
Sun
라거나
daum
종횡
산청군
번성
반말
비좁
해파리
쐈
GD
269
중앙위
유념
속눈썹
심해질
임재희
헌법재판소장
湖
미운
secret
##만수
로하
삽화
방부
Asia
익스트림
안상
##기록원
##ring
광해군
소서
영변
중사
철권
화환
확약
##그머니
살인범
유재형
노스캐롤라이나
깡패
씀씀
강기정
情
변성
##폴리탄
보탠
성가
##카트니
Per
로버츠
리베라
##고추
운집
284
비비시
중징계
Min
교보문고
정치외교
빨라졌
삼거리
최선윤
협약서
군자
치장
인터넷뱅킹
요식
##행복
골리
꾸짖
산삼
세아
관계없
김정민
장미란
전통주
하이엔드
##와인
##펙스
무실
지어졌
폴리스
土
결백
경계심
다방면
하토
길들이
박철우
자유학기
NYMEX
직항
귀감
지청장
디시
속살
넷플릭스
크리스틴
에베레스트
난해
대장균
될까요
치료사
소영
원목
글로브
예일대
지소연
노정
비겁
경산시
전사자
삼성디스플레이
直
##422
바삭
한밭
##퍼블릭
257
祖
Pv
승급
칠성
즐거웠
협의회장
모델하우스
만개
박찬욱
타이탄
제막식
3355
AIIB
크로스오버
母
##저모
when
HE
부적
숙박업소
##예금
움켜
##셔티브
배트맨
##혜경
터미
kkj
불러왔
이상수
원곡
취수
정유미
돌아가셨
##타마
전분
예금보험공사
##BL
節
##루이
도처
정순
줍니다
사가
활용품
파상
타일러
골든글러브
세계보건기구
삼삼
평야
##청기
델리
##기업은행
뛰어다니
푸에르토리코
WM
총국
공작원
자란다
觀
##치즈
부에
격식
불입
##스킨
단둥
세외
오롯
올리버
자료집
남아공월드컵
캐럴
투박
Top
고검장
아르메
추격전
카나
315
우규민
##컨티넨탈
몸체
##ness
문화관
촬영지
##켈레
누굴
차감
324
전국교직원노동조합
志
십분
처가
방문진
이모저모
##가이
괴뢰
산시
시우
토털
윈윈
철군
990
說
##사위
그만뒀
사업청
찢어지
first
평평
박준형
0108
뢰
훅
담근
색조
대자보
상속자
City
Class
묘목
액상
에어부산
룬
##미니
내쫓
다빈치
##공간
247
김상조
총궐기
휘날리
식품의약품안전
if
한풀
나바로
모델명
중동호흡기증후군
##배기
이항
남동부
이시종
이용섭
최성국
김영란법
명화
반한
조성모
마음고생
한화증권
##골퍼
브루클린
인사이드
##nc
말단
유호
네타냐
##학당
깡통
티볼
미니멀
사직서
중앙선거관리위원회
##자지
김찬
몰카
도마뱀
경기침체
매일매일
목회
거스르
빨간불
이브라
고해
카시
나로호
종반
보훈처
정치력
광진
밀반
참외
히타
기관총
춘추관
##하오
율동
강지혜
윤동주
kwon
박주호
딸린
미켈슨
박명환
북제재
정수근
호스피스
私
##토미
남인
프라다
##신보
한희
불러온
조영남
쓴다는
##네티
군국
서울외
##와르
매연
말씀드렸
des
OO
심청
찰떡
에르난데스
##가로
호치민
章
핼
##경궁
단속반
모모
연단
이재만
##기술센터
동부증권
정수장학회
##식당
구기
금형
김회
분개
식상
bad
limj
功
터닝
망서비스
원초
278
카디프
손수건
조심스레
옻
##하르
채산
이성계
HDMI
think
라데
시럽
씨앤
착잡
초전
##캐피털
##oth
##ues
네비
뇌염
고사리
대수롭
이물질
##덴셜
특종
##프로젝트
개폐
상역
착실
코엘
리차드
오스틴
##정리
##협의
떠밀
익힐
만델라
알베르토
프로이센
세차
이지아
장보고
##42276
베이비부머
##7942276
01087942276
##oi
혈투
317
김병만
지멘스
제주특별
SL
오지환
##rit
밀회
발원
군소
Pol
아우성
정준호
##uture
프로듀사
쥘
##무가
##선주
##소현
안철수연구소
분지
임병
버버리
시사점
장충동
접근법
##nik
유조선
##사회복지관
참정
박정권
2235
설상가상
##태희
노루
양계
노려볼
##벼락
총부
이영호
아이리스
핌
RE
##arch
##ature
덮여
차은
읍면동
##대고
건실
뒷돈
은유
##프라자
여장
철도청
##규모
##비타
##포바
배점
오작
##뷰티
268
바르샤바
count
노심
소피
건너간
다크호스
오라클
캐스트
한민구
황국
먹구름
기독교인
페미니즘
증거물
진안군
클립
폐경
결승타
어두워
훙
Up
네바다
##나연
항저우
some
달려갔
이봉주
미쓰에이
##nal
선화
힘껏
통고
306
극장가
김민성
입학생
표현력
네타냐후
돌려보냈
게스트하우스
##재훈
김환
폐차
##라이너
김재철
사업지
見
5743
착시
##여기
258
정찰기
마요
위인
특판
도와준
일고
##투사
산길
##스프링
싸워야
##근호
CV
ISD
##나잇
먹히
Fin
KOR
는지요
쁘
루블
스칼
이매
납니다
도라지
모창
현종
문교부
비뇨기
에스토
이재성
휘말려
화강
박형식
장윤희
진짜사나이
닥칠
아낄
초밥
##가르트
259
코코넛
1050
語
MI
떠맡
정미
김동진
지회장
##분방
까칠
브러시
시끄러
##둘렀
##que
한림대
High
드라이빙
火
集
초토
클라이언트
##특위
비급
장해
전상
고쳤
매해
장호
##과학회
광주시장
외환보유액
김시진
바코드
##어치
두절
스스
헤즈
독차지
수기자
정승환
##제네
혼외
후광
레스터
힘썼
940
안겨줬
symp
사회학과
치켜세웠
윤후
261
피처링
눈썰
食
드래
어다
유니크
지상군
게임업계
잿
여아
절경
지석
친수
김상우
루카스
버크셔
높인다는
용평
동아시안
##과학연구원
##채기
격하
내원
수훈
시디
우도
key
한국인터넷
##즈마
모사
무전
어떡하
사대
전패
870
##서점
이임
변태
375
色
##분자
신영증권
잰
##광수
성현
DGB
하나로통신
야식
염분
잡곡
##마진
##키트
앞장선
펠프스
어획량
week
수그러들
루피
버틴
##저수지
276
금남
민가
우사
쳐서
본고장
침체기
트램
##프레레
대행업체
앵글
타오
저작물
슬램
##케이크
걸어온
서양인
벌점
원기
터빈
737
이대형
일반직
최우수
씨티은행
천영준
강봉
尙
강산
굴레
송병
신평
고스트
로널드
심해졌
정대세
직통
어긋난다
##은식
yjc
##sk
##우성
속삭
후미
수작업
지급액
한국과학기술원
##탈리
과테
볼펜
##ible
sun
주간사
진흥청
암스트롱
자유분방
##맹이
노천
AIG
라쿠텐
로렌스
조력자
오래도록
결격
전정
차오
공포증
마운틴
씀씀이
동장
룰라
아고
스트라
신고식
본프레레
##MG
##해방
과중
로사
진종
장윤주
##영양
블러
오도
건강보험
벌어들이
백기
다시마
jukim
현대경제연구원
고건
관능
들러리
니깐
보완책
water
##히터
승전
저유
유년
267
화음
Win
라라
펼쳐왔
NX
참수
청했
가부장
##어촌공사
무거워
생년월일
압권
양곡
허름
날아오
환갑
##우산
닉스
항전
한국소비자원
영공
전창
csy
착용감
슬그머니
녹이
혼재
사용법
##주사
천수
경력자
인력난
신세계그룹
##프랑스
네이션
일가족
종지부
꼬치
두른
떨쳤
속개
점성
산천어
씨엔
메이트
삼천포
##태권
로이터통신
##자카
한해서
##코딩
받치
유준상
린다
바쳤
김광수
망가지
입학식
한국자산
##조직위원회
어려워진다
の
Air
무기명
해안선
골칫거리
사귄
##ral
후추
##유통공사
법치주의
뼛
루즈
炳
頭
##인구
김의
맞잡
자욱
기뻐하
##북한
##피해
아이덴
개요
top
우경희
뒤엉
##otor
키신저
헤아리
다락
불후
성준
허비
두개골
프로포
합격점
해인사
신분당선
유주
윤이상
트렌치
경내
손끝
십자군
라트비아
##기수
함몰
아르메니아
니스
어루
창작자
##경마공원
나온다고
현주
##클로스
##우정
구질
담판
속력
요구안
초인
펠리
히메네스
토드
박영환
##해전
덕양
백팩
선열
##Body
970
8700
지방대
뱃속
엘스
우롱
카메오
격앙
성문
호크
김소현
마스카
보름달
연료비
철조망
차일
코스모스
##계동
##다발
감칠
윤계
중임
피소
yang
′
숄
PI
공양
클락
미끄럼
최신호
프란체
브렌트유
##sc
플리
찌푸리
매카트니
조난
지퍼
대상국
바랬
앙골
위세
총대
##발전소
총학생회장
##그네
퇴비
486
dB
성묘
##텐트리
930
경제팀
지아
반대파
신의주
##이면
최고조
남주
테드
아닐까요
##SI
##SK
##꼬리
##양행
차예
김영만
##환경운동연합
##레트
##영재
매미
변변
속설
촉박
민방위
판매가
교도관
이병훈
하이퍼
신석
옐친
오거
채태인
##아이즈
브런치
##바시
##흐로
##EAN
WK
그르
투철
무턱대고
유명무실
제일제당
안시
펼침
나뭇잎
섣부른
##트너
저러
진필
고르바
떠올라
수입원
청구인
##벤처기업
갈매기
롯데캐슬
법학과
엇비슷
정보부
대시
배두
김정숙
秋
뵈
눌려
육질
화근
문제집
파고드
This
##경화
淳
##치과
NEW
자투리
주민세
천정인
하이테크
베라
고등부
1850
##둥절
결식
애타
영치
오장
유니온
본교
勝
추려
##빌리지
개악
댜오위
School
United
##지점
il
터너
##무드
염전
결승점
다자녀
돌아설
소피아
이정미
유언비어
##레아
에쓰
들려주
파헤쳐
폭발력
떨어뜨려
##죽순
##ara
발췌
직능
##호르
포커
내부자
##유틸리티
開
달려왔
당선작
졸업장
공급업체
환태평양
禪
##씨름
트럼
줄리엣
광동
대요
보광
수저
중책
홍찬
대항전
어려워진
예식장
니콜라스
한국농어촌공사
산토스
베트남전
동자
##korea
레이디스
패셔니스타
라자
수잔
제정안
##서버
어리둥절
##문회
##천년
북단
간사장
이스타
조사원
도넛
돌격
##파이터
강사진
미스트
백수오
실직자
요율
정명훈
실바
원탁
Cap
본고사
예산처
전환기
대한주택
크레디트
常
조타
부재자
크레용
바트
격려금
박경림
한화케미칼
최면
바닷속
어려운데
응한
자인
장고
버지니아주
허전
##검찰청
aBody
aBodyCom
거뜬
앨라
##도르프
2266
##그루
등원
블럭
##봅니다
블러드
아이튠
우스꽝
##부츠
거명
직제
홍어
국정기획
고육
기갑
증편
##크루즈
자생력
9200
##슐리
미각
백야
사민당
체험단
뉴딜
엿새
선출직
포도당
남아메리카
텀
캐슬
김남주
레오나르도
애리조나주
##린다면
Rob
시스루
영기자
##irect
play
惠
잠기
이종일
통합당
##전략팀장
로이스터
미디
큼직
경험자
통화량
프로농구
간극
약했
좌상
순전히
이범수
이웃집
그려냈
김용태
항공료
벨라루스
빠져나갈
성공회대
##사건
##토토
권철
동티
나와도
입학금
좌회전
산본
욕하
지열
어쩐
한길
남남
코란도
##어라운드
##치노
위도
##타카
한석규
##argin
Ac
용인대
##추리
내홍
신랄
수증기
##메리
굳힌
느티
서평
소호
점원
##운딩
닥쳐
외양
주화
CSR
과도기
문화관광
##은정
##ama
이재정
IFRS
한국콘텐츠진흥원
권은희
사실상
크리스티안
##코타
발성
평원
화자
상하이종합지수
##ern
AE
안영미
윤장현
이따금
위화
지존
베드신
온다는
포함하여
빽빽
항고
##보스토크
하토야마
브레이브스
##방송통신위원회
##무장
주당
홍기
She
라이엇
그려진다
jaelee
나운
사석
은어
조부
광양시
더덕
아웃카운트
유형문화재
급매물
취리히
한국석유공사
도사리
수행원
팬오션
錦
청부
유일호
##흐트
밀려난
##산도
범띠
종점
골밑슛
내려다
다득점
막무가
병원비
##미나
##미사
지코
허허
##사박물관
조코비치
한국수자원공사
무례
선녀
김고은
이순재
개축
정구
청양군
##두부
El
닫힌
출금
할랄
신동아
##아울
##피드
스타인
고르바초프
재상
종현
스트로크
선보인다고
근로복지공단
##선도
간질
체어
宇
돛
노총
저금
타의
늘어남
므
괴력
매집
스팩
신망
영빈
일궈냈
다케시마
修
##더링
답장
바클
영호
중이
장서희
과테말라
공직선거법
컨테이너선
##투수
군악
조승우
종주국
북아프리카
##트론
김운
들르
법외
잊어버리
해준다는
##formation
##느질
##렌토
단전
모셨
Med
하녀
Big
김상훈
불상사
케이지
##little
고환
단오
살벌
남겨진
탐방객
종근
집배
김민수
AOL
박종훈
우주인
이현우
황해도
2040
스마트워치
##km
월트
고소인
선수협
수입량
한일전
샤론
777
성교육
두둔
병마
싼값
울컥
##각서
건담
303
심의회
예탁금
이종현
디올
클레오파트
열강
도드라
장학사
##못해
라디
비행사
실랑이
음미
공유기
세대주
떨어뜨렸
대납
국회부
페넌트레이스
수자원공사
털털
사이다
아름다워
에프티에이
##셔너
방석
각선미
김명수
되새겨
박정환
이종익
지침서
에어버스
##임대
곤살
심대
백분위
최강자
##신경
##클링
코딩
전야제
누볐
빨라질
대경
진품
토레스
##스튜디오
보수주의
찰나
셧다운
휘둘리
##ungh
금융권
빨갱이
ge
윤두
글라스
김재호
즙
외유
스모그
정교회
찬성표
출마자
해로운
무시무시
우후죽순
잃어버렸
공터
비노
박종진
웅진코
장신구
Val
0322
agentlittle
노드
양학
엄기
##현충원
스치
싸인
바야흐로
담금
미룬
괴롭힘
반려견
저커버그
##목동
##ster
스테이트
allday
블라디보스토크
된데다
불거져
자기장
type
##제강
김성균
수련관
실황
##몬스터
장민성
페르난데스
##세관
DMC
현대전
팔뚝
##estival
여세
디펜딩
안겨준
주거비
##레알
백년
궐
##웨더
자양
모자이크
##가람
교인
컬처
혜화
##십니까
##ross
321
강재남
감초
경춘
약값
저촉
전셋집
남면
##에이전트
1880
##일자리
307
任
##커즈
##팬츠
북남
집기
php
해설자
기싸움
조시
##예술단
##nikos
가브리엘
폭탄테러
##차량
북새
보육원
막무가내
소임
hynikos
##오오
271
also
이모티콘
이니셔티브
급작
도스
병해
찍히
헤어나
갤럭시탭
가압
거닐
볼모
스프린트
극치
탄천
물러설
요거트
막후
##기상대
계량기
패터슨
##파라
Int
매달린
생화학
마지노선
##플린
Gu
ML
발육
시영
스와프
웨스틴
津
現
##이브
꽤나
아베노믹스
젝
류난영
##펠트
강운
금자
저속
##자면
온몸
무리수
##호프
다람쥐
일궈낸
강덕
매티스
골목상권
##프로골프협회
##들린
백설
그을
상도동
카네기
泉
요통
수입품
시운전
최나연
Technology
군무
창법
##duct
앞질렀
렙
##협화
고종수
박헌영
육중
기막힌
이상윤
에스토니아
溫
don
도형
띤다
합의금
281
김영희
감형
범퍼
철쭉
공복
감독상
송윤아
대견
백진
어로
##커버리
hsh
어지럼
누린
야합
KRA
맹목적
장진영
##크라테스
##시헌
편수
322
플렉스
함양군
중앙정보국
유투
탈수
사상구
태평로
홍상수
아늑
에워
준안
##씨티
꼽혀
풍류
##평화통일
플레이스
주물
##바브웨
##한다고
Don
오연서
일대기
해운대구
깃든
##wshin
polo
AU
외세
자타
퍼플
환담
고아원
밉
오마이
석조
최양
##ives
박종우
프로포폴
##화력
관록
최성욱
게임업체
듀스
어림
어정
윤승
##특수
관성
라든지
상담소
이경환
##사회복지공동모금회
喜
이지영
가재
원효
지영
유치원생
턴어라운드
결항
박춘
영미
투스
소각장
이븐파
이연복
##성심
안랩
이금
장가
JC
해장
Let
승마장
##베데
##화산
블리
장종
벌여야
패스트볼
도쿄대
안무가
윤리위
풀려난
온라인몰
물병
우림
정다
디스코
뛰어드
##ocial
역투
다반사
양배추
할로윈
##aking
##아오
구보
숙주
은둔
박시후
포르쉐
영일
체스
한다거나
아이덴티티
총상
포섭
한중
눈초리
박광일
한국전자
안내소
간호학과
그란
뮐러
문성민
신정원
임종석
행복감
지수선물
미대
타령
##개발은행
파트너사
온돌
장물
직군
로스터
의사당
동부화재
##티에
증권업
시한부
##트로닉스
한족
스러워했
##고등
메울
중첩
한국공항
창신
연구사
휩쓸려
##제르바이
시가총액
NAVER
리플
기러기
양양군
장관상
안위
폭죽
김영남
이경수
통치자
한국투자
##년도
부다
서상준
서세원
짐바브웨
Green
정벌
초가
신정환
갑오
마천
임태희
##사업회
##켈레톤
대대로
종금사
https
눈꽃
292
알파인
홍정호
경구
부딪혔
포뮬러
일지라도
GPU
액면가
파우치
##입국
꼬이
폐단
노원병
넘보
문하
이쯤
줄임
##바도르
이용호
참고도
자동차업계
ed
체첸
뉴델리
매킨
어웨이
개성공단
준위
공학부
##스페이스
##TP
용문
##lear
부르짖
소용없
ssjun
기를
난로
전혜
함상환
시그니처
탄자니아
응원전
##공장
##퍼슨
현오
불협화
아이젠
트랙터
금호산업
번창
베르디
부소장
참회
흐느
대물림
nlight
##에듀
근시
수소문
##제프
테오
에르메스
암반
몰래카메라
멱
장엄
북새통
곡면
산만
권성동
김태환
발표자
스플릿
1250
제후
act
1901
시시각각
북아메리카
외동
파마
마감일
이광재
인도양
내레이션
겨룬
너구리
畵
##규리
##동반
멋대로
국제원자력
당내
행한
GNP
공매도
출판물
황급
은행원
횟집
늘어선
DLS
김경수
대덕구
사립고
소장파
입장차
나팔
파타
##레슬링
MO
놀리
분립
코리
##에이션
이제껏
margin
아난
##ways
잔디밭
아제르바이
결탁
선경
엠비
염화
빼돌리
자유형
묵념
칸타
식물원
이목구비
브람
만화책
버림받
토토가
먼로
잡티
Hot
되살려
소아과
##해양수산
맥도널드
##본드
any
우은식
야쿠
왕건
피격
號
##답니다
박수현
정보통신망
나빴
355
아쿠아리움
문부
##도나도
How
철도공사
석패
유미
포니
##스크린
dec
FX
전처
족발
들려줬
이재은
##무쌍
##등록금
##범죄가중처벌법
##증서
뭉쳤
반동
되돌아가
비아그라
카탈루냐
와카
완장
이른다고
Am
장이
##eter
총서기
맛깔
모라
저물
희롱
박종근
이겨낼
드미트리

##이
##다
##.
##는
##에
##을
##의
##지
##고
##가
##한
##로
##하
##기
##은
##서
##대
##사
##를
##시
##도
##1
##자
##0
##,
##인
##해
##수
##정
##2
##리
##으
##전
##스
##있
##일
##부
##장
##원
##어
##했
##국
##아
##과
##라
##들
##나
##상
##주
##제
##보
##만
##)
##(
##'
##"
##그
##성
##3
##적
##게
##위
##구
##경
##것
##공
##면
##선
##동
##회
##5
##비
##등
##신
##소
##중
##관
##화
##문
##조
##년
##진
##4
##여
##개
##계
##와
##업
##우
##연
##통
##내
##유
##마
##니
##세
##안
##명
##오
##미
##9
##무
##할
##모
##당
##6
##며
##트
##치
##영
##용
##생
##산
##재
##드
##8
##발
##교
##방
##7
##간
##행
##실
##터
##분
##거
##학
##단
##금
##요
##된
##되
##민
##었
##러
##·
##체
##차
##운
##월
##야
##후
##e
##데
##현
##작
##난
##말
##출
##역
##강
##반
##입
##최
##권
##식
##려
##o
##’
##‘
##표
##까
##타
##결
##감
##물
##건
##s
##점
##예
##바
##설
##없
##력
##“
##매
##뉴
##달
##”
##않
##양
##호
##%
##각
##프
##남
##청
##n
##저
##때
##김
##임
##심
##직
##히
##르
##포
##두
##c
##i
##속
##음
##울
##m
##본
##박
##던
##종
##법
##노
##파
##승
##합
##받
##올
##더
##a
##불
##번
##외
##준
##투
##크
##배
##추
##t
##천
##증
##근
##처
##론
##=
##언
##약
##레
##-
##형
##록
##피
##품
##함
##판
##래
##았
##평
##급
##C
##열
##따
##날
##석
##격
##특
##억
##됐
##환
##브
##태
##S
##r
##습
##초
##집
##활
##군
##북
##목
##린
##확
##른
##디
##능
##씨
##독
##질
##였
##편
##료
##복
##련
##또
##같
##토
##책
##람
##육
##담
##많
##총
##카
##A
##코
##광
##술
##변
##w
##밝
##령
##T
##버
##허
##협
##새
##참
##겠
##규
##알
##키
##B
##루
##런
##향
##온
##축
##별
##송
##검
##병
##란
##백
##못
##절
##l
##<
##혔
##앞
##험
##황
##망
##항
##께
##순
##창
##h
##찰
##살
##티
##I
##메
##졌
##필
##채
##든
##~
##삼
##될
##량
##P
##M
##획
##[
##철
##택
##길
##k
##K
##접
##]
##높
##애
##벌
##뒤
##돌
##워
##@
##팀
##류
##늘
##극
##손
##맞
##너
##및
##좋
##취
##머
##친
##족
##립
##네
##랑
##패
##악
##g
##충
##테
##D
##누
##u
##희
##름
##막
##견
##돼
##느
##범
##줄
##페
##L
##G
##림
##율
##존
##농
##베
##익
##d
##곳
##엔
##플
##E
##즈
##럼
##골
##p
##응
##걸
##측
##져
##폭
##`
##락
##쟁
##움
##커
##침
##완
##】
##【
##왔
##글
##겨
##F
##객
##잘
##y
##효
##갈
##례
##홍
##액
##N
##잡
##렸
##색
##득
##션
##넘
##O
##볼
##케
##융
##?
##찾
##탄
##논
##랜
##큰
##센
##쪽
##눈
##/
##:
##쳐
##봉
##놓
##훈
##럽
##혼
##났
##밀
##긴
##탈
##률
##클
##블
##갖
##째
##윤
##균
##퍼
##층
##V
##힘
##착
##츠
##얼
##▲
##b
##첫
##롯
##혁
##렇
##혜
##빠
##찬
##녀
##즌
##쓰
##앙
##답
##「
##징
##」
##끝
##>
##R
##귀
##먼
##곡
##냐
##몰
##풍
##왕
##휴
##냈
##H
##J
##엄
##홈
##핵
##뿐
##램
##먹
##붙
##퇴
##큼
##폐
##돈
##싶
##f
##떨
##욱
##끌
##압
##숙
##룹
##밖
##혀
##염
##암
##헌
##흥
##욕
##넷
##U
##낸
##릴
##텔
##떠
##널
##풀
##듯
##슬
##덕
##념
##낮
##꾸
##캐
##웃
##좌
##략
##몸
##켜
##틀
##템
##닌
##슈
##혹
##끼
##콘
##팅
##잠
##j
##굴
##뜻
##님
##픽
##갔
##벤
##맡
##쳤
##탁
##폰
##써
##팔
##둘
##W
##랐
##죄
##빈
##쇼
##혐
##v
##쿠
##웨
##쉽
##떤
##얻
##컨
##턴
##춘
##뛰
##뤄
##싸
##촉
##죽
##벽
##즐
##링
##핑
##『
##릭
##옥
##』
##펼
##슨
##짜
##휘
##델
##싱
##놀
##씩
##컵
##◇
##갑
##▶
##맹
##엘
##십
##팬
##납
##숨
##섰
##떻
##칠
##홀
##털
##컴
##몇
##둔
##킨
##섭
##얘
##캠
##혈
##겼
##엇
##칭
##&
##헤
##맨
##힌
##깨
##렵
##낙
##닥
##!
##쉬
##궁
##촌
##웠
##밤
##잔
##죠
##값
##뜨
##맛
##척
##곤
##빌
##롭
##푸
##흐
##솔
##펀
##왜
##맥
##뮤
##컬
##탕
##꿈
##녹
##괴
##봤
##뷰
##칙
##졸
##텐
##렌
##넣
##덧
##흔
##닝
##즉
##콜
##춰
##찍
##흡
##X
##짓
##딩
##좀
##섬
##벨
##봐
##꽃
##칼
##켰
##빛
##셔
##뢰
##킹
##땅
##삶
##즘
##촬
##;
##△
##폴
##줬
##빨
##첨
##꼽
##깊
##흘
##킬
##잇
##곧
##겪
##뇌
##젊
##탑
##짐
##벗
##믿
##늦
##딸
##춤
##짝
##냉
##앤
##콩
##픈
##탐
##Y
##빼
##듣
##쇄
##렀
##셈
##슷
##낼
##퓨
##묘
##힐
##읽
##셀
##냥
##웅
##옮
##므
##묻
##겁
##콤
##켓
##멘
##뷔
##◆
##뽑
##렉
##*
##샤
##∼
##펴
##넓
##꺼
##ᆞ
##덜
##멀
##밥
##잃
##몬
##앨
##튼
##렴
##톤
##럴
##끄
##닉
##겸
##걱
##끊
##빙
##앉
##텍
##펜
##꼭
##잉
##쓸
##왼
##젝
##x
##릿
##랙
##낌
##끈
##金
##Q
##멤
##흑
##럭
##+
##꼬
##핫
##☞
##핀
##빅
##둥
##엽
##찌
##읍
##줘
##슴
##옷
##싼
##몽
##쓴
##쌓
##봄
##쯤
##젠
##닐
##렬
##씬
##쏟
##쾌
##앵
##틴
##긍
##띠
##챔
##뒷
##밑
##빚
##넥
##묵
##쌍
##》
##《
##셨
##_
##맺
##깔
##삭
##륙
##겐
##뿌
##윈
##엑
##헬
##칸
##셋
##듭
##롤
##옛
##롱
##챙
##덴
##갤
##뀌
##셜
##랫
##훨
##괄
##섯
##꾼
##엠
##밴
##옆
##릉
##룡
##톱
##폼
##쌀
##듬
##랭
##탓
##쁘
##z
##李
##돕
##틱
##쥐
##큐
##톡
##룸
##짧
##곽
##끔
##웹
##룬
##튜
##벼
##뱅
##낭
##녁
##똑
##쇠
##뭐
##딱
##듀
##쁜
##붕
##앱
##걷
##굳
##멸
##뒀
##젤
##팽
##횡
##껴
##눠
##〈
##〉
##꼼
##닷
##캡
##쿄
##랍
##씀
##썼
##팩
##덩
##닭
##돋
##잊
##숲
##룩
##랄
##놨
##멋
##꿔
##→
##밍
##훼
##띄
##틸
##첩
##췄
##찮
##헨
##댄
##밟
##○
##뚜
##쿨
##샌
##낳
##깝
##멜
##■
##섹
##잖
##떼
##됩
##옹
##셰
##겹
##뼈
##봇
##숭
##꺾
##닫
##훌
##슛
##옵
##틈
##좁
##밸
##퀴
##밭
##깜
##덤
##쿼
##눔
##묶
##엉
##턱
##됨
##튀
##둑
##팝
##랩
##앗
##흉
##빗
##껏
##딜
##룰
##샘
##얀
##믹
##낄
##캔
##윌
##숫
##녕
##롬
##떡
##멕
##싫
##Z
##팎
##쏘
##몫
##쫓
##섞
##렁
##괜
##릇
##븐
##컸
##냄
##깃
##낀
##랬
##꼴
##릎
##뇨
##멈
##톨
##핸
##셉
##쏠
##웰
##빵
##쩍
##멍
##덮
##닛
###
##끗
##샷
##붉
##땀
##눌
##렷
##쁨
##탱
##칫
##뚝
##탠
##뭔
##륜
##뚫
##픔
##윙
##펠
##굉
##꿀
##캘
##벅
##촛
##륭
##컷
##뭉
##휩
##잎
##곱
##꼈
##땐
##흰
##맑
##햇
##댓
##렛
##솟
##켈
##朴
##大
##뤘
##칩
##맘
##앓
##딘
##킷
##긋
##궤
##숍
##곁
##곰
##푼
##쩌
##닮
##첼
##킥
##넉
##뻔
##킴
##짚
##닿
##낯
##볍
##굿
##궐
##젖
##펙
##東
##햄
##낚
##둬
##잦
##뉘
##갚
##잭
##윗
##갱
##中
##톰
##뀐
##엿
##깎
##훔
##놈
##녔
##뽐
##딴
##텀
##붓
##팡
##늄
##씻
##北
##뜬
##뚱
##옳
##붐
##끓
##낫
##겉
##흙
##깐
##쩔
##넬
##짙
##뭇
##툼
##썰
##돔
##퀘
##뱃
##q
##펑
##넌
##줌
##늬
##삽
##꿨
##꽤
##횟
##켄
##펄
##굽
##툰
##웬
##닦
##뭘
##↑
##갓
##南
##썩
##닙
##싹
##캄
##핏
##탤
##솜
##륨
##힙
##딪
##콧
##흠
##쉐
##맵
##깥
##뱀
##헐
##샵
##뻐
##풋
##찔
##넨
##鄭
##삐
##美
##굵
##얽
##댐
##●
##뜰
##탔
##日
##꽂
##|
##슐
##퉁
##봅
##뜩
##벡
##山
##맙
##〓
##볶
##쑥
##렐
##꾀
##헛
##젓
##휠
##껍
##國
##쑤
##눴
##짱
##렘
##쭉
##뭄
##얹
##럿
##三
##헝
##얇
##韓
##文
##★
##엣
##낡
##安
##샀
##잣
##찜
##퀸
##갯
##×
##궈
##盧
##뜯
##랴
##⁄
##릅
##━
##故
##뻗
##콕
##뽀
##뛴
##겔
##펌
##꽁
##人
##팜
##뮬
##쉴
##西
##쪼
##쥬
##띈
##샐
##슘
##뜸
##싣
##ᄀ
##팍
##▷
##밋
##놔
##崔
##州
##셸
##※
##一
##갇
##옐
##쉼
##빔
##엎
##볕
##둠
##엮
##뤼
##웍
##홉
##늑
##덱
##탬
##줍
##푹
##옴
##돗
##낱
##正
##°
##뮌
##펫
##뿜
##늠
##첸
##챌
##흩
##딕
##쨌
##딛
##꽉
##子
##툴
##삿
##新
##꿰
##귤
##껑
##듈
##뺀
##똥
##왈
##밌
##京
##高
##콰
##뀔
##퀄
##쥔
##띤
##벳
##뉜
##찢
##王
##벙
##텃
##썸
##샴
##옌
##뿔
##海
##道
##촘
##平
##^
##핍
##뛸
##늙
##팟
##앰
##맷
##얄
##댈
##눅
##폈
##댔
##걀
##벚
##天
##콥
##빡
##μ
##씹
##솥
##成
##랠
##씌
##냅
##前
##챈
##룽
##썬
##對
##張
##뺏
##칵
##꿇
##즙
##떴
##趙
##上
##팰
##學
##멧
##明
##江
##찼
##숱
##끽
##깡
##룻
##田
##굶
##쐐
##全
##家
##ᄋ
##쉰
##넸
##쯔
##똘
##넛
##―
##元
##뎌
##無
##•
##쌈
##탭
##쿤
##林
##왓
##不
##훗
##맏
##쎄
##몹
##權
##컫
##쿵
##∙
##小
##덟
##民
##캉
##뱉
##짠
##띔
##곶
##相
##女
##짖
##팥
##떳
##뽕
##썹
##샹
##軍
##늪
##本
##龍
##툭
##長
##城
##社
##젯
##텅
##光
##反
##生
##性
##水
##팸
##公
##텝
##쿡
##딧
##짬
##쩡
##딤
##法
##짤
##샬
##댁
##會
##덥
##姜
##튿
##깁
##퐁
##昌
##씁
##事
##洪
##츄
##神
##石
##췌
##섣
##팁
##괌
##퓰
##武
##팠
##탰
##政
##둡
##心
##섀
##귄
##川
##딥
##義
##仁
##땠
##캣
##뺨
##泰
##德
##썽
##긁
##퉈
##黃
##鍾
##書
##地
##땄
##◎
##永
##큘
##­
##徐
##맴
##之
##쏙
##尹
##왠
##島
##튬
##經
##太
##$
##춧
##깅
##–
##行
##野
##톈
##世
##몄
##和
##白
##겟
##쏜
##在
##馬
##뾰
##륵
##엌
##춥
##寺
##싯
##빽
##{
##基
##漢
##}
##宗
##씽
##ᄒ
##홋
##츰
##훤
##宋
##꿋
##녘
##숯
##쫄
##팻
##껄
##英
##陽
##主
##땡
##빴
##市
##都
##年
##욘
##±
##갸
##河
##텨
##깍
##렙
##い
##눕
##華
##非
##左
##吉
##善
##戰
##찻
##ᄂ
##ᄉ
##궂
##古
##텁
##촨
##좇
##聖
##重
##下
##깬
##뎀
##넋
##윽
##□
##吳
##켐
##뗐
##氏
##컥
##原
##孫
##男
##澤
##폄
##댕
##뻑
##春
##샅
##젬
##틋
##自
##궜
##헷
##靑
##잼
##史
##陳
##門
##찐
##柳
##뿍
##通
##福
##化
##롄
##泳
##報
##劉
##쭈
##右
##信
##時
##숏
##괘
##얏
##뺐
##켠
##쌌
##官
##랗
##얕
##有
##同
##申
##知
##훙
##쑨
##慶
##淸
##五
##氣
##榮
##뺑
##퀵
##쏴
##얌
##짊
##‧
##뻤
##ᄇ
##樂
##펭
##벵
##왁
##熙
##껌
##朝
##뻘
##꽝
##훑
##近
##뵙
##四
##院
##周
##랏
##엥
##─
##煥
##月
##後
##ん
##쁠
##핌
##꾹
##先
##풂
##風
##根
##ᄏ
##哲
##九
##샛
##夫
##ᄌ
##廣
##者
##代
##・
##名
##錫
##習
##얗
##헥
##君
##源
##康
##府
##司
##濟
##黨
##튠
##숀
##車
##윔
##퍽
##볐
##玉
##親
##富
##믈
##方
##治
##內
##萬
##鎭
##木
##甲
##찹
##퀀
##ᄃ
##郞
##숟
##젼
##쩐
##死
##잤
##윅
##部
##뎠
##愛
##슭
##洙
##理
##佛
##웜
##캅
##뻣
##多
##詩
##뗄
##鉉
##千
##使
##の
##雲
##二
##賢
##敎
##面
##뗀
##샨
##興
##宮
##植
##뻥
##읊
##귓
##羅
##松
##쉘
##é
##か
##洞
##깼
##倍
##헹
##う
##建
##寶
##앳
##뎅
##外
##셴
##縣
##士
##論
##雄
##쥘
##맣
##α
##定
##秀
##記
##し
##앴
##옅
##來
##뇽
##晋
##立
##짭
##찡
##承
##順
##忠
##花
##圖
##的
##十
##村
##省
##♥
##胡
##寧
##堂
##펩
##す
##梁
##셧
##↓
##與
##郡
##밧
##텼
##合
##뚤
##튄
##業
##利
##路
##守
##所
##셍
##星
##뵈
##で
##里
##낵
##긱
##物
##帝
##許
##朱
##作
##캇
##쓱
##校
##實
##튕
##空
##老
##孝
##☎
##ᄆ
##字
##思
##뼛
##멩
##뺄
##킵
##憲
##禮
##덫
##浩
##壽
##臣
##共
##닳
##眞
##뫼
##智
##쬐
##銀
##윷
##口
##솎
##沈
##꺽
##갭
##숄
##밉
##쾰
##훅
##俊
##辛
##켤
##댜
##틔
##師
##뒹
##엊
##줏
##體
##힉
##分
##圭
##弘
##쇳
##ᄎ
##將
##촐
##큽
##舊
##動
##容
##쟈
##像
##用
##强
##株
##流
##챗
##八
##밈
##힝
##꼿
##빕
##百
##曺
##斗
##場
##́
##옻
##皇
##′
##父
##茶
##鎬
##뮈
##丁
##勳
##景
##延
##뮐
##臺
##맬
##手
##藤
##짰
##産
##烈
##잿
##言
##챘
##發
##身
##돛
##井
##왑
##잰
##傳
##谷
##핼
##線
##깰
##制
##兵
##力
##命
##엡
##歌
##商
##\
##쐈
##湖
##情
##土
##直
##祖
##땜
##☆
##母
##節
##觀
##志
##說
##넝
##私
##章
##功
##욤
##쾅
##た
##見
##꿍
##냇
##語
##火
##集
##食
##色
##멱
##尙
##쑹
##ま
##쫀
##炳
##頭
##な
##秋
##淳
##勝
##셌
##開
##禪
##常
##惠
##錦
##퀼
##宇
##修
##任
##津
##現
##泉
##溫
##喜
##콴
##畵
##號
##햅
##起
##進
##蘇
##宣
##댑
##良
##꿩
##異
##빤
##電
##貞
##魚
##載
##度
##갛
##連
##튤
##毛
##맸
##횃
<s>
</s>
intent_
[unused3]
[unused4]
[unused5]
[unused6]
[unused7]
[unused8]
[unused9]
[unused10]
[unused11]
[unused12]
[unused13]
[unused14]
[unused15]
[unused16]
[unused17]
[unused18]
[unused19]
[unused20]
[unused21]
[unused22]
[unused23]
[unused24]
[unused25]
[unused26]
[unused27]
[unused28]
[unused29]
[unused30]
[unused31]
[unused32]
[unused33]
[unused34]
[unused35]
[unused36]
[unused37]
[unused38]
[unused39]
[unused40]
[unused41]
[unused42]
[unused43]
[unused44]
[unused45]
[unused46]
[unused47]
[unused48]
[unused49]
[unused50]
[unused51]
[unused52]
[unused53]
[unused54]
[unused55]
[unused56]
[unused57]
[unused58]
[unused59]
[unused60]
[unused61]
[unused62]
[unused63]
[unused64]
[unused65]
[unused66]
[unused67]
[unused68]
[unused69]
[unused70]
[unused71]
[unused72]
[unused73]
[unused74]
[unused75]
[unused76]
[unused77]
[unused78]
[unused79]
[unused80]
[unused81]
[unused82]
[unused83]
[unused84]
[unused85]
[unused86]
[unused87]
[unused88]
[unused89]
[unused90]
[unused91]
[unused92]
[unused93]
[unused94]
[unused95]
[unused96]
[unused97]
[unused98]
[unused99]
[unused100]
[unused101]
[unused102]
[unused103]
[unused104]
[unused105]
[unused106]
[unused107]
[unused108]
[unused109]
[unused110]
[unused111]
[unused112]
[unused113]
[unused114]
[unused115]
[unused116]
[unused117]
[unused118]
[unused119]
[unused120]
[unused121]
[unused122]
[unused123]
[unused124]
[unused125]
[unused126]
[unused127]
[unused128]
[unused129]
[unused130]
[unused131]
[unused132]
[unused133]
[unused134]
[unused135]
[unused136]
[unused137]
[unused138]
[unused139]
[unused140]
[unused141]
[unused142]
[unused143]
[unused144]
[unused145]
[unused146]
[unused147]
[unused148]
[unused149]
[unused150]
[unused151]
[unused152]
[unused153]
[unused154]
[unused155]
[unused156]
[unused157]
[unused158]
[unused159]
[unused160]
[unused161]
[unused162]
[unused163]
[unused164]
[unused165]
[unused166]
[unused167]
[unused168]
[unused169]
[unused170]
[unused171]
[unused172]
[unused173]
[unused174]
[unused175]
[unused176]
[unused177]
[unused178]
[unused179]
[unused180]
[unused181]
[unused182]
[unused183]
[unused184]
[unused185]
[unused186]
[unused187]
[unused188]
[unused189]
[unused190]
[unused191]
[unused192]
[unused193]
[unused194]
[unused195]
[unused196]
[unused197]
[unused198]
[unused199]
[unused200]
[unused201]